{
  "version": "1.0",
  "truncation": null,
  "padding": null,
  "added_tokens": [
    {
      "id": 0,
      "content": "<PAD>",
      "single_word": false,
      "lstrip": false,
      "rstrip": false,
      "normalized": false,
      "special": true
    },
    {
      "id": 1,
      "content": "<UNK>",
      "single_word": false,
      "lstrip": false,
      "rstrip": false,
      "normalized": false,
      "special": true
    },
    {
      "id": 2,
      "content": "<BOS>",
      "single_word": false,
      "lstrip": false,
      "rstrip": false,
      "normalized": false,
      "special": true
    },
    {
      "id": 3,
      "content": "<EOS>",
      "single_word": false,
      "lstrip": false,
      "rstrip": false,
      "normalized": false,
      "special": true
    },
    {
      "id": 4,
      "content": "<SEP>",
      "single_word": false,
      "lstrip": false,
      "rstrip": false,
      "normalized": false,
      "special": true
    }
  ],
  "normalizer": null,
  "pre_tokenizer": {
    "type": "Whitespace"
  },
  "post_processor": null,
  "decoder": null,
  "model": {
    "type": "BPE",
    "dropout": null,
    "unk_token": "<UNK>",
    "continuing_subword_prefix": null,
    "end_of_word_suffix": null,
    "fuse_unk": false,
    "byte_fallback": false,
    "ignore_merges": false,
    "vocab": {
      "<PAD>": 0,
      "<UNK>": 1,
      "<BOS>": 2,
      "<EOS>": 3,
      "<SEP>": 4,
      "!": 5,
      "\"": 6,
      "#": 7,
      "$": 8,
      "%": 9,
      "&": 10,
      "'": 11,
      "(": 12,
      ")": 13,
      "*": 14,
      "+": 15,
      ",": 16,
      "-": 17,
      ".": 18,
      "/": 19,
      "0": 20,
      "1": 21,
      "2": 22,
      "3": 23,
      "4": 24,
      "5": 25,
      "6": 26,
      "7": 27,
      "8": 28,
      "9": 29,
      ":": 30,
      ";": 31,
      "<": 32,
      "=": 33,
      ">": 34,
      "?": 35,
      "@": 36,
      "A": 37,
      "B": 38,
      "C": 39,
      "D": 40,
      "E": 41,
      "F": 42,
      "G": 43,
      "H": 44,
      "I": 45,
      "J": 46,
      "K": 47,
      "L": 48,
      "M": 49,
      "N": 50,
      "O": 51,
      "P": 52,
      "Q": 53,
      "R": 54,
      "S": 55,
      "T": 56,
      "U": 57,
      "V": 58,
      "W": 59,
      "X": 60,
      "Y": 61,
      "Z": 62,
      "[": 63,
      "\\": 64,
      "]": 65,
      "^": 66,
      "_": 67,
      "`": 68,
      "a": 69,
      "b": 70,
      "c": 71,
      "d": 72,
      "e": 73,
      "f": 74,
      "g": 75,
      "h": 76,
      "i": 77,
      "j": 78,
      "k": 79,
      "l": 80,
      "m": 81,
      "n": 82,
      "o": 83,
      "p": 84,
      "q": 85,
      "r": 86,
      "s": 87,
      "t": 88,
      "u": 89,
      "v": 90,
      "w": 91,
      "x": 92,
      "y": 93,
      "z": 94,
      "{": 95,
      "|": 96,
      "}": 97,
      "~": 98,
      "§": 99,
      "¬": 100,
      "±": 101,
      "²": 102,
      "³": 103,
      "·": 104,
      "¹": 105,
      "Ô": 106,
      "×": 107,
      "Û": 108,
      "é": 109,
      "ö": 110,
      "÷": 111,
      "Ĥ": 112,
      "̂": 113,
      "̄": 114,
      "Δ": 115,
      "Λ": 116,
      "Ν": 117,
      "Π": 118,
      "Σ": 119,
      "Φ": 120,
      "Ψ": 121,
      "α": 122,
      "β": 123,
      "γ": 124,
      "δ": 125,
      "ε": 126,
      "η": 127,
      "θ": 128,
      "κ": 129,
      "λ": 130,
      "μ": 131,
      "ν": 132,
      "ξ": 133,
      "π": 134,
      "ρ": 135,
      "σ": 136,
      "τ": 137,
      "φ": 138,
      "ψ": 139,
      "ω": 140,
      "ϕ": 141,
      "א": 142,
      "מ": 143,
      "ת": 144,
      "ᴬ": 145,
      "ᴮ": 146,
      "ᴰ": 147,
      "ᵀ": 148,
      "ᵂ": 149,
      "ᵈ": 150,
      "ᵐ": 151,
      "ᵖ": 152,
      "ᵢ": 153,
      "ᵣ": 154,
      "ᵥ": 155,
      "ᵦ": 156,
      "ᶜ": 157,
      "‍": 158,
      "‑": 159,
      "–": 160,
      "—": 161,
      "‖": 162,
      "’": 163,
      "“": 164,
      "”": 165,
      "†": 166,
      "•": 167,
      "…": 168,
      "′": 169,
      "ⁱ": 170,
      "⁴": 171,
      "⁶": 172,
      "⁷": 173,
      "⁺": 174,
      "⁻": 175,
      "⁽": 176,
      "⁾": 177,
      "ⁿ": 178,
      "₀": 179,
      "₁": 180,
      "₂": 181,
      "₃": 182,
      "₄": 183,
      "₅": 184,
      "₆": 185,
      "₇": 186,
      "₈": 187,
      "₉": 188,
      "₊": 189,
      "₋": 190,
      "₌": 191,
      "₍": 192,
      "₎": 193,
      "ₐ": 194,
      "ₑ": 195,
      "ₖ": 196,
      "ₘ": 197,
      "ₙ": 198,
      "ₛ": 199,
      "ℂ": 200,
      "ℏ": 201,
      "ℒ": 202,
      "ℓ": 203,
      "ℛ": 204,
      "ℜ": 205,
      "ℝ": 206,
      "ℬ": 207,
      "ℱ": 208,
      "←": 209,
      "↑": 210,
      "→": 211,
      "↓": 212,
      "↔": 213,
      "↦": 214,
      "↺": 215,
      "⇄": 216,
      "⇒": 217,
      "⇓": 218,
      "∀": 219,
      "∂": 220,
      "∃": 221,
      "∅": 222,
      "∇": 223,
      "∈": 224,
      "∉": 225,
      "∎": 226,
      "∏": 227,
      "∑": 228,
      "−": 229,
      "∓": 230,
      "∘": 231,
      "√": 232,
      "∝": 233,
      "∞": 234,
      "∥": 235,
      "∧": 236,
      "∨": 237,
      "∩": 238,
      "∪": 239,
      "∫": 240,
      "≈": 241,
      "≋": 242,
      "≠": 243,
      "≡": 244,
      "≤": 245,
      "≥": 246,
      "≺": 247,
      "≻": 248,
      "⊂": 249,
      "⊆": 250,
      "⊕": 251,
      "⊖": 252,
      "⊗": 253,
      "⊘": 254,
      "⊙": 255,
      "⊥": 256,
      "⋀": 257,
      "⋃": 258,
      "⋯": 259,
      "⌊": 260,
      "⌋": 261,
      "⎿": 262,
      "⏳": 263,
      "─": 264,
      "│": 265,
      "┌": 266,
      "┐": 267,
      "└": 268,
      "┘": 269,
      "├": 270,
      "┤": 271,
      "┬": 272,
      "┴": 273,
      "┼": 274,
      "═": 275,
      "║": 276,
      "╔": 277,
      "╗": 278,
      "╚": 279,
      "╝": 280,
      "╠": 281,
      "╣": 282,
      "╦": 283,
      "╧": 284,
      "╩": 285,
      "╪": 286,
      "╬": 287,
      "╭": 288,
      "╮": 289,
      "╯": 290,
      "╰": 291,
      "█": 292,
      "▌": 293,
      "▐": 294,
      "▘": 295,
      "▛": 296,
      "▜": 297,
      "▝": 298,
      "□": 299,
      "△": 300,
      "▶": 301,
      "►": 302,
      "▼": 303,
      "◇": 304,
      "○": 305,
      "◌": 306,
      "●": 307,
      "♈": 308,
      "♉": 309,
      "♊": 310,
      "♋": 311,
      "♌": 312,
      "♍": 313,
      "♎": 314,
      "♏": 315,
      "♐": 316,
      "♑": 317,
      "♒": 318,
      "♓": 319,
      "⚠": 320,
      "⚡": 321,
      "⛓": 322,
      "✅": 323,
      "✓": 324,
      "✗": 325,
      "✨": 326,
      "❌": 327,
      "❤": 328,
      "⟂": 329,
      "⟦": 330,
      "⟧": 331,
      "⟨": 332,
      "⟩": 333,
      "⟲": 334,
      "⟳": 335,
      "⟷": 336,
      "⟸": 337,
      "⟹": 338,
      "⟺": 339,
      "ⱼ": 340,
      "꜀": 341,
      "": 342,
      "": 343,
      "️": 344,
      "﻿": 345,
      "𝒜": 346,
      "𝒟": 347,
      "𝒢": 348,
      "𝒪": 349,
      "𝒫": 350,
      "𝒮": 351,
      "𝒱": 352,
      "𝔄": 353,
      "𝟙": 354,
      "🌱": 355,
      "🎯": 356,
      "🏛": 357,
      "💖": 358,
      "💡": 359,
      "💰": 360,
      "📘": 361,
      "🔗": 362,
      "🔷": 363,
      "🤝": 364,
      "🧠": 365,
      "🩹": 366,
      "on": 367,
      "ti": 368,
      "al": 369,
      "in": 370,
      "tion": 371,
      "er": 372,
      "en": 373,
      "es": 374,
      "th": 375,
      "at": 376,
      "or": 377,
      "ation": 378,
      "an": 379,
      "si": 380,
      "re": 381,
      "--": 382,
      "ou": 383,
      "KS": 384,
      "TKS": 385,
      "it": 386,
      "is": 387,
      "ing": 388,
      "ar": 389,
      "the": 390,
      "de": 391,
      "cal": 392,
      "ve": 393,
      "per": 394,
      "ce": 395,
      "le": 396,
      "id": 397,
      "st": 398,
      "hy": 399,
      "──": 400,
      "ent": 401,
      "for": 402,
      "mo": 403,
      "se": 404,
      "**": 405,
      "Th": 406,
      "to": 407,
      "peration": 408,
      "alid": 409,
      "con": 410,
      "hysi": 411,
      "hysical": 412,
      "om": 413,
      "Operation": 414,
      "ter": 415,
      "Valid": 416,
      "ig": 417,
      "ap": 418,
      "ol": 419,
      "as": 420,
      "ac": 421,
      "ate": 422,
      "Physical": 423,
      "tional": 424,
      "qu": 425,
      "motional": 426,
      "ess": 427,
      "Wh": 428,
      "In": 429,
      "ir": 430,
      "ec": 431,
      "tr": 432,
      "pr": 433,
      "cep": 434,
      "----": 435,
      "te": 436,
      "Emotional": 437,
      "of": 438,
      "What": 439,
      "ul": 440,
      "ment": 441,
      "ual": 442,
      "ity": 443,
      "ic": 444,
      "ine": 445,
      "``": 446,
      "el": 447,
      "ow": 448,
      "and": 449,
      "__": 450,
      "wh": 451,
      "tive": 452,
      "itual": 453,
      "pir": 454,
      "piritual": 455,
      "De": 456,
      "gh": 457,
      "The": 458,
      "app": 459,
      "ed": 460,
      "iv": 461,
      "ough": 462,
      "il": 463,
      "##": 464,
      "ith": 465,
      "────": 466,
      "nd": 467,
      "pre": 468,
      "==": 469,
      "ca": 470,
      "Spiritual": 471,
      "ts": 472,
      "with": 473,
      "ab": 474,
      "ep": 475,
      "cept": 476,
      "quation": 477,
      "tic": 478,
      "ant": 479,
      "lan": 480,
      "if": 481,
      "og": 482,
      "ten": 483,
      "tin": 484,
      "ly": 485,
      "Inter": 486,
      "oal": 487,
      "En": 488,
      "PM": 489,
      "RPM": 490,
      "Re": 491,
      "em": 492,
      "ens": 493,
      "ind": 494,
      "od": 495,
      "igh": 496,
      "war": 497,
      "ought": 498,
      "sy": 499,
      "oc": 500,
      "ak": 501,
      "cul": 502,
      "you": 503,
      "pret": 504,
      "sion": 505,
      "ivine": 506,
      "want": 507,
      "tiv": 508,
      "10": 509,
      "when": 510,
      "am": 511,
      "Goal": 512,
      "Equation": 513,
      "ting": 514,
      "Interpret": 515,
      "Deep": 516,
      "Plan": 517,
      "olve": 518,
      "Divine": 519,
      "ty": 520,
      "ver": 521,
      "Thought": 522,
      "Cal": 523,
      "asca": 524,
      "happ": 525,
      "ascade": 526,
      "ound": 527,
      "Calcul": 528,
      "tern": 529,
      "Calculate": 530,
      "ie": 531,
      "Cascade": 532,
      "eness": 533,
      "happens": 534,
      "Solve": 535,
      "im": 536,
      "ch": 537,
      "co": 538,
      "wareness": 539,
      "ur": 540,
      "ex": 541,
      "po": 542,
      "into": 543,
      "ld": 544,
      "no": 545,
      "ger": 546,
      "D9": 547,
      "```": 548,
      "pl": 549,
      "tex": 550,
      "D5": 551,
      "tivity": 552,
      "D6": 553,
      "C3": 554,
      "B8": 555,
      "C4": 556,
      "ge": 557,
      "mb": 558,
      "B5": 559,
      "D3": 560,
      "Tr": 561,
      "D8": 562,
      "C5": 563,
      "oundation": 564,
      "B3": 565,
      "concept": 566,
      "com": 567,
      "text": 568,
      ").": 569,
      "C2": 570,
      "attern": 571,
      "wor": 572,
      "A2": 573,
      "B1": 574,
      "A1": 575,
      "B2": 576,
      "ain": 577,
      "D7": 578,
      "ear": 579,
      "A9": 580,
      "B9": 581,
      "A3": 582,
      "A4": 583,
      "A5": 584,
      "C8": 585,
      "A8": 586,
      "B6": 587,
      "B7": 588,
      "C9": 589,
      "fr": 590,
      "mbol": 591,
      "C1": 592,
      "Map": 593,
      "D4": 594,
      "D1": 595,
      "ceptivity": 596,
      "C7": 597,
      "igger": 598,
      "uc": 599,
      "high": 600,
      "B4": 601,
      "Ex": 602,
      "A0": 603,
      "A7": 604,
      "D2": 605,
      "C6": 606,
      "A6": 607,
      "Awareness": 608,
      "D0": 609,
      "code": 610,
      "symbol": 611,
      "us": 612,
      "akes": 613,
      "C0": 614,
      "context": 615,
      "Receptivity": 616,
      "etic": 617,
      "____": 618,
      "elie": 619,
      "Mind": 620,
      "Con": 621,
      "ple": 622,
      "ure": 623,
      "tensi": 624,
      "Encode": 625,
      "--------": 626,
      "un": 627,
      "elief": 628,
      "B0": 629,
      "Foundation": 630,
      "stakes": 631,
      "pon": 632,
      "et": 633,
      "No": 634,
      "res": 635,
      "str": 636,
      "ign": 637,
      "ical": 638,
      "au": 639,
      "ition": 640,
      "ff": 641,
      "Ele": 642,
      "Res": 643,
      "══": 644,
      "ect": 645,
      "====": 646,
      "ad": 647,
      "ut": 648,
      "ence": 649,
      "sh": 650,
      "ip": 651,
      "ire": 652,
      "out": 653,
      "su": 654,
      "ogn": 655,
      "tensity": 656,
      "):": 657,
      "erg": 658,
      "op": 659,
      "Pattern": 660,
      "from": 661,
      "---": 662,
      "pres": 663,
      "Ide": 664,
      "ates": 665,
      "ag": 666,
      "ignment": 667,
      "ponse": 668,
      "Trigger": 669,
      "enc": 670,
      "Belief": 671,
      "sc": 672,
      "lu": 673,
      "Intensity": 674,
      "Wor": 675,
      "**:": 676,
      "act": 677,
      "be": 678,
      "king": 679,
      "ies": 680,
      "Response": 681,
      "────────": 682,
      "ergy": 683,
      "ness": 684,
      "Po": 685,
      "action": 686,
      "Cogn": 687,
      "Noetic": 688,
      "ere": 689,
      "ative": 690,
      "sitive": 691,
      ":**": 692,
      "that": 693,
      "###": 694,
      "ne": 695,
      "ll": 696,
      "Pr": 697,
      "pro": 698,
      "ill": 699,
      "est": 700,
      "World": 701,
      "eal": 702,
      "this": 703,
      "int": 704,
      "me": 705,
      "your": 706,
      "uct": 707,
      "can": 708,
      "ffect": 709,
      "ay": 710,
      "ale": 711,
      "Positive": 712,
      "For": 713,
      "ning": 714,
      "requ": 715,
      "Mo": 716,
      "yc": 717,
      "),": 718,
      "ib": 719,
      "are": 720,
      "pression": 721,
      "lo": 722,
      "isi": 723,
      "Element": 724,
      "ause": 725,
      "our": 726,
      "ealth": 727,
      "ha": 728,
      "ous": 729,
      "iz": 730,
      "Com": 731,
      "sel": 732,
      "ower": 733,
      "man": 734,
      "esire": 735,
      "ency": 736,
      "Ac": 737,
      "quisi": 738,
      "ss": 739,
      "all": 740,
      "physical": 741,
      "Effect": 742,
      "form": 743,
      "sp": 744,
      "fine": 745,
      "ental": 746,
      "ach": 747,
      "oci": 748,
      "world": 749,
      "Mental": 750,
      "self": 751,
      "ody": 752,
      "________": 753,
      "not": 754,
      "ass": 755,
      "ks": 756,
      "Cause": 757,
      "ted": 758,
      "Idea": 759,
      "ance": 760,
      "ated": 761,
      "Concept": 762,
      "now": 763,
      "tions": 764,
      "Man": 765,
      "ans": 766,
      "ers": 767,
      "Form": 768,
      "ogical": 769,
      "dom": 770,
      "inking": 771,
      "struct": 772,
      "fe": 773,
      "ious": 774,
      "Al": 775,
      "one": 776,
      "mic": 777,
      "ration": 778,
      "ma": 779,
      "hyth": 780,
      "ID": 781,
      "Expression": 782,
      "oul": 783,
      "itive": 784,
      "enti": 785,
      "iting": 786,
      "========": 787,
      "able": 788,
      "════": 789,
      "emotional": 790,
      "iness": 791,
      "vel": 792,
      "requency": 793,
      "pe": 794,
      "oman": 795,
      "bo": 796,
      "ycle": 797,
      "|--------": 798,
      "eta": 799,
      "oy": 800,
      "hythm": 801,
      "Ch": 802,
      "Su": 803,
      "ds": 804,
      "Ne": 805,
      "alignment": 806,
      "Op": 807,
      "Energy": 808,
      "abit": 809,
      "vation": 810,
      "ack": 811,
      "imiting": 812,
      "pattern": 813,
      "fin": 814,
      "by": 815,
      "por": 816,
      "Body": 817,
      "cre": 818,
      "Lear": 819,
      "Tem": 820,
      "This": 821,
      "par": 822,
      "Cycle": 823,
      "Frequency": 824,
      "und": 825,
      "plate": 826,
      "Learning": 827,
      "gative": 828,
      "Woman": 829,
      "print": 830,
      "Meta": 831,
      "Health": 832,
      "..": 833,
      "age": 834,
      "ded": 835,
      "ific": 836,
      "Alignment": 837,
      "trigger": 838,
      "pos": 839,
      "mental": 840,
      "Desire": 841,
      "Mood": 842,
      "Mis": 843,
      "Cognitive": 844,
      "attr": 845,
      "ality": 846,
      "scious": 847,
      "ves": 848,
      "isdom": 849,
      "Fear": 850,
      "Soul": 851,
      "sed": 852,
      "Template": 853,
      "ship": 854,
      "rough": 855,
      "lue": 856,
      "Limiting": 857,
      "dis": 858,
      "Will": 859,
      "llness": 860,
      "Illness": 861,
      "Thinking": 862,
      "Logical": 863,
      "Happ": 864,
      "put": 865,
      "ON": 866,
      "St": 867,
      "Joy": 868,
      "emale": 869,
      "cor": 870,
      "lueprint": 871,
      "del": 872,
      "Elevation": 873,
      "Misalignment": 874,
      "ail": 875,
      "ility": 876,
      "stem": 877,
      "structure": 878,
      "Kar": 879,
      "Cognition": 880,
      "Female": 881,
      "Happiness": 882,
      "TI": 883,
      "fl": 884,
      "Habit": 885,
      "cr": 886,
      "do": 887,
      "work": 888,
      "her": 889,
      "we": 890,
      "Blueprint": 891,
      "Karmic": 892,
      "ame": 893,
      "through": 894,
      "noetic": 895,
      "ci": 896,
      "ust": 897,
      "tim": 898,
      "pa": 899,
      "des": 900,
      "ue": 901,
      "energy": 902,
      "gr": 903,
      "led": 904,
      "Power": 905,
      "jec": 906,
      "ating": 907,
      "associ": 908,
      "Exam": 909,
      "iti": 910,
      "conscious": 911,
      "ro": 912,
      "ibration": 913,
      "Wisdom": 914,
      "spec": 915,
      "ory": 916,
      "Ideas": 917,
      "py": 918,
      "spiritual": 919,
      "ome": 920,
      "feel": 921,
      "dr": 922,
      "ther": 923,
      "within": 924,
      "stand": 925,
      "thing": 926,
      "end": 927,
      "ations": 928,
      "what": 929,
      "version": 930,
      "equation": 931,
      "Option": 932,
      "vi": 933,
      "Sub": 934,
      "Negative": 935,
      "operation": 936,
      "sis": 937,
      "tra": 938,
      "bec": 939,
      "ial": 940,
      "belief": 941,
      "ke": 942,
      "about": 943,
      "fer": 944,
      "sub": 945,
      "ct": 946,
      "actal": 947,
      "remo": 948,
      "onical": 949,
      "fi": 950,
      "finition": 951,
      "oper": 952,
      "bl": 953,
      "um": 954,
      "00": 955,
      "ary": 956,
      "ability": 957,
      "tes": 958,
      "rel": 959,
      "acti": 960,
      "ator": 961,
      "iag": 962,
      ".\"": 963,
      "erstand": 964,
      "ven": 965,
      "inter": 966,
      ":=": 967,
      "know": 968,
      "Rhythm": 969,
      "────────────────": 970,
      "Example": 971,
      "aw": 972,
      "gn": 973,
      "ich": 974,
      "->": 975,
      "valid": 976,
      "val": 977,
      "system": 978,
      "unc": 979,
      "arr": 980,
      "son": 981,
      "ele": 982,
      "but": 983,
      "ob": 984,
      "over": 985,
      "aly": 986,
      "ight": 987,
      "Fr": 988,
      "dition": 989,
      "define": 990,
      "Acquisi": 991,
      "cur": 992,
      "You": 993,
      "state": 994,
      "Define": 995,
      "Male": 996,
      "pose": 997,
      "ful": 998,
      "iagno": 999,
      "awareness": 1000,
      "aining": 1001,
      "ER": 1002,
      "ics": 1003,
      "ult": 1004,
      "specific": 1005,
      "les": 1006,
      "lear": 1007,
      "Vibration": 1008,
      "ding": 1009,
      "ces": 1010,
      "ampl": 1011,
      "how": 1012,
      "ata": 1013,
      "Str": 1014,
      "_T": 1015,
      "trans": 1016,
      "erequisi": 1017,
      "An": 1018,
      "caus": 1019,
      "defined": 1020,
      "flu": 1021,
      "ide": 1022,
      "patterns": 1023,
      "TION": 1024,
      "ocess": 1025,
      "manif": 1026,
      "has": 1027,
      "ife": 1028,
      "removes": 1029,
      "model": 1030,
      "li": 1031,
      "plan": 1032,
      "get": 1033,
      "col": 1034,
      "poses": 1035,
      "AL": 1036,
      "nec": 1037,
      "ech": 1038,
      "pan": 1039,
      "AS": 1040,
      "ener": 1041,
      "he": 1042,
      "own": 1043,
      "posi": 1044,
      "________________": 1045,
      "Ad": 1046,
      "ist": 1047,
      "oo": 1048,
      "eng": 1049,
      "ace": 1050,
      "Definition": 1051,
      "peri": 1052,
      "ore": 1053,
      "new": 1054,
      "uil": 1055,
      "comple": 1056,
      "level": 1057,
      "intensi": 1058,
      "using": 1059,
      "ive": 1060,
      "triggers": 1061,
      "ater": 1062,
      "its": 1063,
      "fluence": 1064,
      "fies": 1065,
      "ution": 1066,
      "ion": 1067,
      "sts": 1068,
      "erstanding": 1069,
      "oun": 1070,
      "ble": 1071,
      "canonical": 1072,
      "av": 1073,
      "ong": 1074,
      "identi": 1075,
      "ror": 1076,
      "force": 1077,
      "================": 1078,
      "ifies": 1079,
      "cess": 1080,
      "his": 1081,
      "Trans": 1082,
      "ationship": 1083,
      "practi": 1084,
      "have": 1085,
      "12": 1086,
      "At": 1087,
      "process": 1088,
      "════════": 1089,
      "ot": 1090,
      "It": 1091,
      "When": 1092,
      "consciousness": 1093,
      "arrative": 1094,
      "intensifies": 1095,
      "ati": 1096,
      "ication": 1097,
      "test": 1098,
      "apter": 1099,
      "associates": 1100,
      "Acquisition": 1101,
      "ffec": 1102,
      "foundation": 1103,
      "\",": 1104,
      "ase": 1105,
      "lin": 1106,
      "Ap": 1107,
      "elow": 1108,
      "influence": 1109,
      "ense": 1110,
      "gment": 1111,
      "low": 1112,
      "ments": 1113,
      "cont": 1114,
      "Can": 1115,
      "ari": 1116,
      "worlds": 1117,
      "chan": 1118,
      "ross": 1119,
      "Abo": 1120,
      "condition": 1121,
      "output": 1122,
      "sup": 1123,
      "\":": 1124,
      "func": 1125,
      "rip": 1126,
      "Above": 1127,
      "power": 1128,
      "ock": 1129,
      "ledge": 1130,
      "Un": 1131,
      "Sy": 1132,
      "desire": 1133,
      "attraction": 1134,
      "IN": 1135,
      "aterial": 1136,
      "ternal": 1137,
      "up": 1138,
      "opposes": 1139,
      "stic": 1140,
      "back": 1141,
      "sti": 1142,
      "urpose": 1143,
      "fear": 1144,
      "use": 1145,
      "Fractal": 1146,
      "atch": 1147,
      ")**": 1148,
      "feeling": 1149,
      "where": 1150,
      "flic": 1151,
      "SE": 1152,
      "goal": 1153,
      "alysis": 1154,
      "inte": 1155,
      "ME": 1156,
      "formation": 1157,
      "prod": 1158,
      "data": 1159,
      "ays": 1160,
      "they": 1161,
      "very": 1162,
      "der": 1163,
      "br": 1164,
      "ally": 1165,
      "scrip": 1166,
      "need": 1167,
      "AN": 1168,
      "mon": 1169,
      "ese": 1170,
      "rejec": 1171,
      "ix": 1172,
      "ults": 1173,
      "respon": 1174,
      "actor": 1175,
      "olar": 1176,
      "ould": 1177,
      "narrative": 1178,
      "ser": 1179,
      "ah": 1180,
      "my": 1181,
      "some": 1182,
      "ateg": 1183,
      "|----": 1184,
      "Prerequisi": 1185,
      "states": 1186,
      "40": 1187,
      "conflic": 1188,
      "ud": 1189,
      "experi": 1190,
      "iven": 1191,
      "time": 1192,
      "uccess": 1193,
      "dif": 1194,
      "ues": 1195,
      "rhythm": 1196,
      "suppor": 1197,
      "just": 1198,
      "does": 1199,
      "manifest": 1200,
      "Below": 1201,
      "Foundations": 1202,
      "RE": 1203,
      "trac": 1204,
      "position": 1205,
      "If": 1206,
      "All": 1207,
      "Chapter": 1208,
      "min": 1209,
      "tem": 1210,
      "─────": 1211,
      "go": 1212,
      "ycles": 1213,
      "AC": 1214,
      "Pro": 1215,
      "enari": 1216,
      "Noetics": 1217,
      "enario": 1218,
      "Lo": 1219,
      "sist": 1220,
      "cl": 1221,
      "loss": 1222,
      "uth": 1223,
      "Ma": 1224,
      "bet": 1225,
      "connec": 1226,
      "vers": 1227,
      "relationship": 1228,
      "D10": 1229,
      "ba": 1230,
      "see": 1231,
      "eck": 1232,
      "notation": 1233,
      "like": 1234,
      "Ste": 1235,
      "actions": 1236,
      "ailure": 1237,
      "boo": 1238,
      "each": 1239,
      "uation": 1240,
      "ures": 1241,
      "hase": 1242,
      "iagnostic": 1243,
      "Step": 1244,
      "ise": 1245,
      "ner": 1246,
      "ization": 1247,
      "Le": 1248,
      "trol": 1249,
      "augment": 1250,
      "Id": 1251,
      "TE": 1252,
      "emo": 1253,
      "ving": 1254,
      "med": 1255,
      "inci": 1256,
      "sive": 1257,
      "real": 1258,
      "...": 1259,
      "vid": 1260,
      "noetics": 1261,
      ")?": 1262,
      "gu": 1263,
      "ences": 1264,
      "6d": 1265,
      "lec": 1266,
      "buil": 1267,
      "ents": 1268,
      "frame": 1269,
      "Comple": 1270,
      "arget": 1271,
      "oney": 1272,
      "Action": 1273,
      "ree": 1274,
      "thon": 1275,
      "ism": 1276,
      "conf": 1277,
      "operations": 1278,
      "without": 1279,
      "operator": 1280,
      "who": 1281,
      "erc": 1282,
      "ources": 1283,
      "love": 1284,
      "Identi": 1285,
      "art": 1286,
      "beliefs": 1287,
      "Inte": 1288,
      "TR": 1289,
      "results": 1290,
      "json": 1291,
      "ster": 1292,
      "inds": 1293,
      "ite": 1294,
      "don": 1295,
      "──────": 1296,
      "panion": 1297,
      "Ass": 1298,
      "ward": 1299,
      "cycles": 1300,
      "effec": 1301,
      "tenti": 1302,
      "Your": 1303,
      "ulti": 1304,
      "ize": 1305,
      "panionship": 1306,
      "pec": 1307,
      "We": 1308,
      "reality": 1309,
      "Life": 1310,
      "tur": 1311,
      "ains": 1312,
      "ject": 1313,
      "which": 1314,
      "Struct": 1315,
      "ually": 1316,
      "20": 1317,
      "Do": 1318,
      "sign": 1319,
      "ires": 1320,
      "Given": 1321,
      "purpose": 1322,
      "becom": 1323,
      "mag": 1324,
      "gener": 1325,
      "late": 1326,
      "ATION": 1327,
      "Elements": 1328,
      "ority": 1329,
      "dic": 1330,
      "pu": 1331,
      "ake": 1332,
      "vention": 1333,
      "them": 1334,
      "BE": 1335,
      "polar": 1336,
      "trics": 1337,
      "OR": 1338,
      "----------------": 1339,
      "Which": 1340,
      "scripts": 1341,
      "gration": 1342,
      "sequ": 1343,
      "being": 1344,
      "tical": 1345,
      "Cre": 1346,
      "vol": 1347,
      "sim": 1348,
      "comb": 1349,
      "ference": 1350,
      "PAS": 1351,
      "irst": 1352,
      "pregn": 1353,
      "Fe": 1354,
      "foc": 1355,
      "sing": 1356,
      "ples": 1357,
      "))": 1358,
      "5b": 1359,
      "success": 1360,
      "impregn": 1361,
      "inal": 1362,
      "ish": 1363,
      "ween": 1364,
      "identity": 1365,
      "isn": 1366,
      "conditioning": 1367,
      "between": 1368,
      "dire": 1369,
      "dim": 1370,
      "fy": 1371,
      "comm": 1372,
      "clu": 1373,
      "F1": 1374,
      "|------------": 1375,
      "$$": 1376,
      "working": 1377,
      "izes": 1378,
      "descr": 1379,
      "fa": 1380,
      "AR": 1381,
      "body": 1382,
      "cap": 1383,
      "tocol": 1384,
      ")—": 1385,
      "Know": 1386,
      "python": 1387,
      "tests": 1388,
      "conflicts": 1389,
      "Ag": 1390,
      "understanding": 1391,
      "pend": 1392,
      "expression": 1393,
      "Translate": 1394,
      "sk": 1395,
      "fore": 1396,
      "training": 1397,
      "B10": 1398,
      "health": 1399,
      "their": 1400,
      "down": 1401,
      "log": 1402,
      "ature": 1403,
      "princi": 1404,
      "binds": 1405,
      "other": 1406,
      "old": 1407,
      "Associ": 1408,
      "exis": 1409,
      "port": 1410,
      "ied": 1411,
      "Sc": 1412,
      "fied": 1413,
      "Is": 1414,
      "Se": 1415,
      "ta": 1416,
      "any": 1417,
      "Me": 1418,
      "augmented": 1419,
      "ering": 1420,
      "traction": 1421,
      "path": 1422,
      "echan": 1423,
      "tor": 1424,
      "aning": 1425,
      "correspon": 1426,
      "bal": 1427,
      "ash": 1428,
      "rent": 1429,
      "tain": 1430,
      "ined": 1431,
      "fractal": 1432,
      "A10": 1433,
      "aversion": 1434,
      "Use": 1435,
      "ard": 1436,
      "ection": 1437,
      "produc": 1438,
      ".,": 1439,
      "os": 1440,
      "Companionship": 1441,
      "manifestation": 1442,
      "Phase": 1443,
      "test_": 1444,
      "LE": 1445,
      "set": 1446,
      "ource": 1447,
      "Scenario": 1448,
      "Material": 1449,
      "lect": 1450,
      "//": 1451,
      "reson": 1452,
      "she": 1453,
      "cir": 1454,
      "press": 1455,
      "amplifies": 1456,
      "vir": 1457,
      "ural": 1458,
      "ACBE": 1459,
      "tential": 1460,
      "read": 1461,
      "causal": 1462,
      "content": 1463,
      "4c": 1464,
      "Im": 1465,
      "ollow": 1466,
      "ities": 1467,
      "Complete": 1468,
      "pul": 1469,
      "so": 1470,
      "then": 1471,
      "|----------------": 1472,
      "Und": 1473,
      "teach": 1474,
      "links": 1475,
      "How": 1476,
      "oth": 1477,
      "part": 1478,
      "Structure": 1479,
      "mis": 1480,
      "more": 1481,
      "these": 1482,
      "tention": 1483,
      "knowledge": 1484,
      "transform": 1485,
      "3c": 1486,
      "type": 1487,
      "Worlds": 1488,
      "person": 1489,
      "consist": 1490,
      "positive": 1491,
      "velop": 1492,
      "was": 1493,
      "thema": 1494,
      "oid": 1495,
      "sense": 1496,
      "negative": 1497,
      "attractor": 1498,
      "Level": 1499,
      "corresponds": 1500,
      "cogn": 1501,
      "uce": 1502,
      "activ": 1503,
      "ized": 1504,
      "Diagnostic": 1505,
      "Test": 1506,
      "doc": 1507,
      "thought": 1508,
      "element": 1509,
      "Hint": 1510,
      "Tim": 1511,
      "tracts": 1512,
      "F4": 1513,
      "ction": 1514,
      "plement": 1515,
      "ze": 1516,
      "causes": 1517,
      "based": 1518,
      "Too": 1519,
      "life": 1520,
      "run": 1521,
      "emb": 1522,
      "'?": 1523,
      "Bl": 1524,
      "than": 1525,
      "istic": 1526,
      "atis": 1527,
      "supports": 1528,
      "framework": 1529,
      "───────": 1530,
      "Be": 1531,
      "Rec": 1532,
      "subtracts": 1533,
      "engine": 1534,
      "Prerequisite": 1535,
      "Ty": 1536,
      "pas": 1537,
      "contra": 1538,
      "metrics": 1539,
      "rejects": 1540,
      "Tootra": 1541,
      "ople": 1542,
      "edback": 1543,
      "Mode": 1544,
      "echn": 1545,
      "emotions": 1546,
      "doesn": 1547,
      "money": 1548,
      "reg": 1549,
      "ows": 1550,
      "15": 1551,
      "C10": 1552,
      "across": 1553,
      "Association": 1554,
      "Dis": 1555,
      "System": 1556,
      "Agent": 1557,
      "wr": 1558,
      "ses": 1559,
      "only": 1560,
      "ile": 1561,
      "arch": 1562,
      "fund": 1563,
      "internal": 1564,
      "ayer": 1565,
      "sible": 1566,
      "LO": 1567,
      "intensity": 1568,
      "typ": 1569,
      "fic": 1570,
      "will": 1571,
      "eld": 1572,
      "Intervention": 1573,
      "boosts": 1574,
      "contrasts": 1575,
      "here": 1576,
      "appro": 1577,
      "block": 1578,
      "follow": 1579,
      "})": 1580,
      "train": 1581,
      "PASS": 1582,
      "impregnated": 1583,
      "jsonl": 1584,
      "nam": 1585,
      "ph": 1586,
      "ulation": 1587,
      "validation": 1588,
      "High": 1589,
      "severs": 1590,
      "change": 1591,
      "|-------": 1592,
      "every": 1593,
      "uring": 1594,
      "under": 1595,
      "timing": 1596,
      "vior": 1597,
      "control": 1598,
      "unity": 1599,
      "Analysis": 1600,
      "magn": 1601,
      "viron": 1602,
      "ges": 1603,
      "mat": 1604,
      "havior": 1605,
      "polarizes": 1606,
      "ave": 1607,
      "gan": 1608,
      "lead": 1609,
      "come": 1610,
      "resources": 1611,
      "Dual": 1612,
      "Oper": 1613,
      "circ": 1614,
      "\"\"": 1615,
      "arity": 1616,
      "constr": 1617,
      "CE": 1618,
      "thinking": 1619,
      "arge": 1620,
      "words": 1621,
      "experience": 1622,
      "Des": 1623,
      "practice": 1624,
      "focus": 1625,
      "others": 1626,
      "VR": 1627,
      "iqu": 1628,
      "llect": 1629,
      "itself": 1630,
      "true": 1631,
      "MVR": 1632,
      "OP": 1633,
      "effect": 1634,
      "provid": 1635,
      "Understanding": 1636,
      "Out": 1637,
      "mar": 1638,
      "cision": 1639,
      "describ": 1640,
      "Ques": 1641,
      "main": 1642,
      "orm": 1643,
      "elements": 1644,
      "Canonical": 1645,
      "TH": 1646,
      "mind": 1647,
      "Inv": 1648,
      "often": 1649,
      "cause": 1650,
      "reak": 1651,
      "ify": 1652,
      "shif": 1653,
      "2b": 1654,
      "though": 1655,
      "check": 1656,
      "Work": 1657,
      "Sh": 1658,
      "nu": 1659,
      "eline": 1660,
      "ogr": 1661,
      "tended": 1662,
      "differ": 1663,
      "connection": 1664,
      "becomes": 1665,
      "3d": 1666,
      "He": 1667,
      "6b": 1668,
      "Cr": 1669,
      "analysis": 1670,
      "quality": 1671,
      "AI": 1672,
      "core": 1673,
      "sens": 1674,
      "esting": 1675,
      "orig": 1676,
      "tics": 1677,
      "och": 1678,
      "idea": 1679,
      "magnifies": 1680,
      "pass": 1681,
      "entr": 1682,
      "ules": 1683,
      "complete": 1684,
      "════════════════": 1685,
      "As": 1686,
      "_d": 1687,
      "Conf": 1688,
      "Not": 1689,
      "ification": 1690,
      "ings": 1691,
      "Or": 1692,
      "require": 1693,
      "coun": 1694,
      "why": 1695,
      "works": 1696,
      "itical": 1697,
      "target": 1698,
      "vibration": 1699,
      "active": 1700,
      "vs": 1701,
      "behavior": 1702,
      "11": 1703,
      "amental": 1704,
      "batch": 1705,
      "They": 1706,
      "present": 1707,
      "elf": 1708,
      "ieve": 1709,
      "Practi": 1710,
      "amples": 1711,
      "1b": 1712,
      "P2": 1713,
      "practition": 1714,
      "Type": 1715,
      "NT": 1716,
      "scal": 1717,
      "deep": 1718,
      "================================": 1719,
      "1_": 1720,
      "Over": 1721,
      "times": 1722,
      "failure": 1723,
      "met": 1724,
      "most": 1725,
      "result": 1726,
      "auth": 1727,
      "people": 1728,
      "become": 1729,
      "Er": 1730,
      "NO": 1731,
      "Ar": 1732,
      "clear": 1733,
      "ages": 1734,
      "function": 1735,
      "lective": 1736,
      "Knowledge": 1737,
      "order": 1738,
      "learning": 1739,
      "tempor": 1740,
      "cer": 1741,
      "story": 1742,
      "turn": 1743,
      "skill": 1744,
      "Gr": 1745,
      "Self": 1746,
      "div": 1747,
      "istance": 1748,
      "sol": 1749,
      "organ": 1750,
      "anger": 1751,
      "because": 1752,
      "________________________________": 1753,
      "thoughts": 1754,
      "IG": 1755,
      "_augmented": 1756,
      "tks": 1757,
      "ument": 1758,
      "ull": 1759,
      "ocial": 1760,
      "Unity": 1761,
      "TA": 1762,
      "ories": 1763,
      "before": 1764,
      "math": 1765,
      "consistent": 1766,
      "Ver": 1767,
      "ters": 1768,
      "ext": 1769,
      "Per": 1770,
      "material": 1771,
      "atus": 1772,
      "ogy": 1773,
      "lying": 1774,
      "1a": 1775,
      "Cross": 1776,
      "map": 1777,
      "ynam": 1778,
      "ell": 1779,
      "external": 1780,
      "fundamental": 1781,
      "red": 1782,
      "develop": 1783,
      "separ": 1784,
      "point": 1785,
      "Pre": 1786,
      "Par": 1787,
      "She": 1788,
      "right": 1789,
      "soul": 1790,
      "sic": 1791,
      "repe": 1792,
      "llectual": 1793,
      "udy": 1794,
      "different": 1795,
      "ok": 1796,
      "alse": 1797,
      "iew": 1798,
      "Error": 1799,
      "ms": 1800,
      "als": 1801,
      "step": 1802,
      "ick": 1803,
      "100": 1804,
      "something": 1805,
      "P10": 1806,
      "ev": 1807,
      "ule": 1808,
      "):**": 1809,
      "000": 1810,
      "passion": 1811,
      "Her": 1812,
      "P3": 1813,
      "P4": 1814,
      "den": 1815,
      "day": 1816,
      "multi": 1817,
      "sych": 1818,
      "plic": 1819,
      "must": 1820,
      "pus": 1821,
      "inst": 1822,
      "sigh": 1823,
      "iter": 1824,
      "feelings": 1825,
      "operators": 1826,
      "rate": 1827,
      "ang": 1828,
      "prerequisi": 1829,
      "uction": 1830,
      "teacher": 1831,
      "P5": 1832,
      "Operator": 1833,
      "28": 1834,
      "3b": 1835,
      "Failure": 1836,
      "md": 1837,
      "satis": 1838,
      "used": 1839,
      "create": 1840,
      "current": 1841,
      "torch": 1842,
      "CO": 1843,
      "thod": 1844,
      "reat": 1845,
      "Inversion": 1846,
      "────────────────────────────────": 1847,
      "ideas": 1848,
      "Validation": 1849,
      "ask": 1850,
      "apping": 1851,
      "ically": 1852,
      "Integration": 1853,
      "aus": 1854,
      "mechan": 1855,
      "Dom": 1856,
      "ek": 1857,
      "same": 1858,
      "try": 1859,
      "appl": 1860,
      "functional": 1861,
      "Block": 1862,
      "Rep": 1863,
      "initi": 1864,
      "anti": 1865,
      "idence": 1866,
      "potential": 1867,
      "Prerequisites": 1868,
      "Buil": 1869,
      "input": 1870,
      "Model": 1871,
      "environ": 1872,
      "Express": 1873,
      "volution": 1874,
      "there": 1875,
      "ives": 1876,
      "pair": 1877,
      "dress": 1878,
      "resonance": 1879,
      "F5": 1880,
      "view": 1881,
      "┼───────": 1882,
      "iver": 1883,
      "aily": 1884,
      "processing": 1885,
      "sequence": 1886,
      "Spec": 1887,
      "VER": 1888,
      "ink": 1889,
      "things": 1890,
      "echniqu": 1891,
      "These": 1892,
      "plication": 1893,
      "IS": 1894,
      "Ke": 1895,
      "tu": 1896,
      "ology": 1897,
      "trib": 1898,
      "pati": 1899,
      "transformation": 1900,
      "Love": 1901,
      "OU": 1902,
      "fail": 1903,
      "itality": 1904,
      "Training": 1905,
      "actually": 1906,
      "ast": 1907,
      "orem": 1908,
      "persti": 1909,
      "Where": 1910,
      "emp": 1911,
      "crip": 1912,
      "draw": 1913,
      "|------": 1914,
      "ately": 1915,
      "####": 1916,
      "ified": 1917,
      "ipeline": 1918,
      "Br": 1919,
      "Dec": 1920,
      "divine": 1921,
      "should": 1922,
      "effects": 1923,
      "':": 1924,
      "30": 1925,
      "fter": 1926,
      "face": 1927,
      "Feel": 1928,
      "Caus": 1929,
      "P12": 1930,
      "Rel": 1931,
      "mode": 1932,
      "predic": 1933,
      "comes": 1934,
      "meaning": 1935,
      "understand": 1936,
      "ercise": 1937,
      "()": 1938,
      "ra": 1939,
      "requires": 1940,
      "attrac": 1941,
      "cent": 1942,
      "definition": 1943,
      "medi": 1944,
      "7d": 1945,
      "AP": 1946,
      "first": 1947,
      "uman": 1948,
      "ins": 1949,
      "inversion": 1950,
      "avoid": 1951,
      "META": 1952,
      "Cl": 1953,
      "Each": 1954,
      "iled": 1955,
      "bloc": 1956,
      "25": 1957,
      "ute": 1958,
      "|---------": 1959,
      "creates": 1960,
      "Us": 1961,
      "ient": 1962,
      "ref": 1963,
      "anced": 1964,
      "via": 1965,
      "collective": 1966,
      "App": 1967,
      "authority": 1968,
      "_v": 1969,
      "ways": 1970,
      "direct": 1971,
      "Func": 1972,
      "wisdom": 1973,
      "Eng": 1974,
      "exec": 1975,
      "Manif": 1976,
      "CTION": 1977,
      "GER": 1978,
      "Low": 1979,
      "TO": 1980,
      "ath": 1981,
      "pect": 1982,
      "tal": 1983,
      "ological": 1984,
      "Protocol": 1985,
      "5d": 1986,
      "TRIG": 1987,
      "TRIGGER": 1988,
      "Kab": 1989,
      "P6": 1990,
      "Target": 1991,
      "sm": 1992,
      "tral": 1993,
      "progr": 1994,
      "tivation": 1995,
      "projec": 1996,
      "\")": 1997,
      "_m": 1998,
      "ord": 1999,
      "irror": 2000,
      "iety": 2001,
      "composition": 2002,
      "space": 2003,
      "Fractals": 2004,
      "engineering": 2005,
      "┼───────┼───────": 2006,
      ")**:": 2007,
      "habit": 2008,
      "acity": 2009,
      "ily": 2010,
      "Conscious": 2011,
      "load": 2012,
      "Every": 2013,
      "det": 2014,
      "flow": 2015,
      "EN": 2016,
      "Multi": 2017,
      "diagno": 2018,
      "false": 2019,
      "til": 2020,
      "ints": 2021,
      "toward": 2022,
      "Check": 2023,
      "posing": 2024,
      "experiences": 2025,
      "principle": 2026,
      "plementation": 2027,
      "],": 2028,
      "fil": 2029,
      "error": 2030,
      "move": 2031,
      "tool": 2032,
      "Reality": 2033,
      "earch": 2034,
      "Acquisitions": 2035,
      "─────┼": 2036,
      "thematical": 2037,
      "But": 2038,
      "ED": 2039,
      "First": 2040,
      "hen": 2041,
      "hold": 2042,
      "forces": 2043,
      "Ob": 2044,
      "Why": 2045,
      "With": 2046,
      "acy": 2047,
      "effective": 2048,
      "sight": 2049,
      "Kabbal": 2050,
      "Let": 2051,
      "eval": 2052,
      "5c": 2053,
      "Am": 2054,
      "Gener": 2055,
      "TU": 2056,
      "epoch": 2057,
      "Read": 2058,
      "examples": 2059,
      "aware": 2060,
      "puts": 2061,
      "ormal": 2062,
      "2c": 2063,
      "ax": 2064,
      "bility": 2065,
      "oup": 2066,
      "off": 2067,
      "iving": 2068,
      "Cont": 2069,
      "relationships": 2070,
      "50": 2071,
      "P1": 2072,
      "ier": 2073,
      "acquisi": 2074,
      "occur": 2075,
      "Control": 2076,
      "systems": 2077,
      "fault": 2078,
      "22": 2079,
      "AU": 2080,
      "source": 2081,
      "},": 2082,
      "verage": 2083,
      "sphere": 2084,
      "combin": 2085,
      "provides": 2086,
      "PR": 2087,
      "usiness": 2088,
      "Question": 2089,
      "hand": 2090,
      "l_": 2091,
      "ling": 2092,
      "resistance": 2093,
      "protocol": 2094,
      "izing": 2095,
      "structures": 2096,
      "2_": 2097,
      "CK": 2098,
      "Pure": 2099,
      "ange": 2100,
      "receptivity": 2101,
      "aking": 2102,
      "field": 2103,
      "models": 2104,
      "MENT": 2105,
      "capacity": 2106,
      "sur": 2107,
      "itation": 2108,
      "sum": 2109,
      "feedback": 2110,
      "principles": 2111,
      "existing": 2112,
      "perstition": 2113,
      "bash": 2114,
      "hour": 2115,
      "ening": 2116,
      "fort": 2117,
      "cond": 2118,
      "compose": 2119,
      "Comm": 2120,
      "State": 2121,
      ".)": 2122,
      "?\"": 2123,
      "_n": 2124,
      "return": 2125,
      "strateg": 2126,
      "integration": 2127,
      "embed": 2128,
      "mem": 2129,
      "ood": 2130,
      "xiety": 2131,
      "attention": 2132,
      "chain": 2133,
      "equations": 2134,
      "Attraction": 2135,
      "realm": 2136,
      "Full": 2137,
      "Qu": 2138,
      "psych": 2139,
      "recogn": 2140,
      "ely": 2141,
      "fully": 2142,
      "Identify": 2143,
      "F3": 2144,
      "align": 2145,
      "prehen": 2146,
      "sust": 2147,
      "learn": 2148,
      "Domain": 2149,
      "ativity": 2150,
      "uit": 2151,
      "itect": 2152,
      "syn": 2153,
      "obser": 2154,
      "plane": 2155,
      "Core": 2156,
      "IF": 2157,
      "SI": 2158,
      "Val": 2159,
      "ths": 2160,
      "needs": 2161,
      "ready": 2162,
      "wan": 2163,
      "way": 2164,
      "inv": 2165,
      "quire": 2166,
      "expr": 2167,
      "loop": 2168,
      "practitioners": 2169,
      "GE": 2170,
      "hid": 2171,
      "itional": 2172,
      "motion": 2173,
      "Theorem": 2174,
      "antum": 2175,
      "Prim": 2176,
      "complex": 2177,
      "building": 2178,
      "temporally": 2179,
      "attracted": 2180,
      "1c": 2181,
      "ging": 2182,
      "ests": 2183,
      "analy": 2184,
      "rece": 2185,
      "ular": 2186,
      "original": 2187,
      "ynamics": 2188,
      "Scan": 2189,
      "bs": 2190,
      "depend": 2191,
      "stable": 2192,
      "contin": 2193,
      "ared": 2194,
      "train_": 2195,
      "Ba": 2196,
      "LL": 2197,
      "Layer": 2198,
      "gen": 2199,
      "less": 2200,
      "enough": 2201,
      "mod": 2202,
      "Interaction": 2203,
      "Mod": 2204,
      "ors": 2205,
      "sions": 2206,
      "lack": 2207,
      "make": 2208,
      "alle": 2209,
      "ved": 2210,
      "ases": 2211,
      "indow": 2212,
      "coher": 2213,
      "|----------": 2214,
      "Apply": 2215,
      "_C": 2216,
      "ole": 2217,
      "idual": 2218,
      "ict": 2219,
      "comp": 2220,
      "yourself": 2221,
      "achieve": 2222,
      "master": 2223,
      "produce": 2224,
      "build": 2225,
      "Does": 2226,
      "Feeling": 2227,
      "BLO": 2228,
      "GO": 2229,
      "let": 2230,
      "Operational": 2231,
      "been": 2232,
      "proble": 2233,
      "Examples": 2234,
      "operating": 2235,
      "(\"": 2236,
      "14": 2237,
      "Jack": 2238,
      "Purpose": 2239,
      "`,": 2240,
      "`:": 2241,
      "bt": 2242,
      "pt": 2243,
      "posed": 2244,
      "uck": 2245,
      "ING": 2246,
      "Identity": 2247,
      "produces": 2248,
      "Manifest": 2249,
      "Eval": 2250,
      "His": 2251,
      "cum": 2252,
      "days": 2253,
      "may": 2254,
      "repul": 2255,
      "utes": 2256,
      "corpus": 2257,
      "past": 2258,
      "interpret": 2259,
      "Output": 2260,
      "BLOCK": 2261,
      "Lust": 2262,
      "nat": 2263,
      "zes": 2264,
      "irm": 2265,
      "ainst": 2266,
      "ANCE": 2267,
      "emotion": 2268,
      "FM": 2269,
      "On": 2270,
      "fication": 2271,
      "att": 2272,
      "manip": 2273,
      "Symbol": 2274,
      "F6": 2275,
      "Wealth": 2276,
      "aph": 2277,
      "mentary": 2278,
      "verse": 2279,
      "char": 2280,
      "Status": 2281,
      "Part": 2282,
      "ron": 2283,
      "anch": 2284,
      "issu": 2285,
      "def": 2286,
      "teric": 2287,
      "ices": 2288,
      "optim": 2289,
      "Time": 2290,
      "F7": 2291,
      "Set": 2292,
      "diagnostic": 2293,
      "gin": 2294,
      "strong": 2295,
      "ealing": 2296,
      "blind": 2297,
      "Fix": 2298,
      "star": 2299,
      "environment": 2300,
      "F2": 2301,
      "MP": 2302,
      "Sense": 2303,
      "during": 2304,
      "ties": 2305,
      "isual": 2306,
      "scenario": 2307,
      "method": 2308,
      "both": 2309,
      "Are": 2310,
      "Auth": 2311,
      "Doc": 2312,
      "VE": 2313,
      "afe": 2314,
      "break": 2315,
      "social": 2316,
      "tice": 2317,
      "arc": 2318,
      "too": 2319,
      "acks": 2320,
      "oding": 2321,
      "Contin": 2322,
      "outcomes": 2323,
      "sume": 2324,
      "echniques": 2325,
      "Causal": 2326,
      "AUSE": 2327,
      "Aversion": 2328,
      "Mon": 2329,
      "Section": 2330,
      "eded": 2331,
      "ether": 2332,
      "would": 2333,
      "ason": 2334,
      "eman": 2335,
      "until": 2336,
      "knowing": 2337,
      "ounded": 2338,
      "Create": 2339,
      "types": 2340,
      "application": 2341,
      "Engine": 2342,
      "Em": 2343,
      "Some": 2344,
      "ef": 2345,
      "frequency": 2346,
      "ged": 2347,
      "hol": 2348,
      "ia": 2349,
      "line": 2350,
      "decision": 2351,
      "cepts": 2352,
      "suff": 2353,
      "New": 2354,
      "Study": 2355,
      "SECTION": 2356,
      "following": 2357,
      "Key": 2358,
      "itecture": 2359,
      "MA": 2360,
      "vitality": 2361,
      "incre": 2362,
      "inclu": 2363,
      "thes": 2364,
      "igen": 2365,
      "shop": 2366,
      "ength": 2367,
      "becoming": 2368,
      "document": 2369,
      "Relationship": 2370,
      "─────┼─────┼": 2371,
      "Case": 2372,
      "King": 2373,
      "dual": 2374,
      "anxiety": 2375,
      "tok": 2376,
      "accept": 2377,
      "key": 2378,
      "script": 2379,
      "logic": 2380,
      "required": 2381,
      "60": 2382,
      "spo": 2383,
      "information": 2384,
      "three": 2385,
      "composes": 2386,
      "manage": 2387,
      "tailed": 2388,
      "empha": 2389,
      "acquisition": 2390,
      "repulsion": 2391,
      "3_": 2392,
      "Money": 2393,
      "Run": 2394,
      "['": 2395,
      "rix": 2396,
      "size": 2397,
      "That": 2398,
      "expl": 2399,
      "etc": 2400,
      "goals": 2401,
      "integr": 2402,
      "transforms": 2403,
      "allel": 2404,
      "Rules": 2405,
      "business": 2406,
      "even": 2407,
      "ises": 2408,
      "prot": 2409,
      "cipl": 2410,
      "full": 2411,
      "pansion": 2412,
      "config": 2413,
      "God": 2414,
      "Operations": 2415,
      "truth": 2416,
      "response": 2417,
      "manifesting": 2418,
      "good": 2419,
      "Critical": 2420,
      "Ax": 2421,
      "NE": 2422,
      "ST": 2423,
      "human": 2424,
      "ice": 2425,
      "lower": 2426,
      "ose": 2427,
      "xim": 2428,
      "elp": 2429,
      "value": 2430,
      "Added": 2431,
      "Application": 2432,
      "describing": 2433,
      "4d": 2434,
      "ming": 2435,
      "mary": 2436,
      "wo": 2437,
      "someone": 2438,
      "blocks": 2439,
      "II": 2440,
      "ision": 2441,
      "ond": 2442,
      "actual": 2443,
      "creating": 2444,
      "corre": 2445,
      "structured": 2446,
      "association": 2447,
      "values": 2448,
      "Five": 2449,
      "eti": 2450,
      "pipeline": 2451,
      "seman": 2452,
      "tran": 2453,
      "fix": 2454,
      "monstr": 2455,
      "simil": 2456,
      "leads": 2457,
      "mark": 2458,
      "Hy": 2459,
      "Yes": 2460,
      "daily": 2461,
      "lish": 2462,
      "ception": 2463,
      "Result": 2464,
      "AND": 2465,
      "sequences": 2466,
      "tribution": 2467,
      "Sk": 2468,
      "ade": 2469,
      "think": 2470,
      "rele": 2471,
      "care": 2472,
      "exact": 2473,
      "pected": 2474,
      "underlying": 2475,
      "Mechan": 2476,
      "NANCE": 2477,
      "Role": 2478,
      "logical": 2479,
      "ored": 2480,
      "ithm": 2481,
      "Strong": 2482,
      "lection": 2483,
      "--------------------------------": 2484,
      "VERNANCE": 2485,
      "GOVERNANCE": 2486,
      "cumul": 2487,
      "Authority": 2488,
      "ND": 2489,
      "Table": 2490,
      "_attractor": 2491,
      "atic": 2492,
      "sit": 2493,
      "while": 2494,
      "ables": 2495,
      "cha": 2496,
      "compon": 2497,
      "Condition": 2498,
      "...\"": 2499,
      "operational": 2500,
      "vidence": 2501,
      "guage": 2502,
      "Week": 2503,
      "\"\"\"": 2504,
      "separates": 2505,
      "18": 2506,
      "Cur": 2507,
      "CAL": 2508,
      "Now": 2509,
      "Que": 2510,
      "did": 2511,
      "mor": 2512,
      "uine": 2513,
      "vanced": 2514,
      "els": 2515,
      "apply": 2516,
      "uration": 2517,
      "aints": 2518,
      "Master": 2519,
      ")^": 2520,
      "Diagno": 2521,
      "Data": 2522,
      "To": 2523,
      "bi": 2524,
      "ft": 2525,
      "might": 2526,
      "nn": 2527,
      "v7": 2528,
      "termin": 2529,
      "Transformation": 2530,
      "partner": 2531,
      "thematics": 2532,
      "cognitive": 2533,
      "mathcal": 2534,
      "rather": 2535,
      "embedding": 2536,
      "Seman": 2537,
      "categ": 2538,
      "ton": 2539,
      "woman": 2540,
      "sizes": 2541,
      "aging": 2542,
      "neg": 2543,
      "needed": 2544,
      "provi": 2545,
      "Commentary": 2546,
      "ential": 2547,
      "objec": 2548,
      "oose": 2549,
      "Append": 2550,
      "SED": 2551,
      "Duality": 2552,
      "PU": 2553,
      "Success": 2554,
      "top": 2555,
      "getic": 2556,
      "allow": 2557,
      "weak": 2558,
      "consciously": 2559,
      "─────────────────": 2560,
      "shift": 2561,
      "hours": 2562,
      "cipline": 2563,
      ",\"": 2564,
      "<-": 2565,
      "NL": 2566,
      "nl_": 2567,
      "phase": 2568,
      "oring": 2569,
      "Interpretation": 2570,
      "compati": 2571,
      "Composition": 2572,
      "link": 2573,
      "skills": 2574,
      "program": 2575,
      "prehensive": 2576,
      "Au": 2577,
      "CON": 2578,
      "bound": 2579,
      "fu": 2580,
      "ik": 2581,
      "conver": 2582,
      "asure": 2583,
      "accur": 2584,
      "trad": 2585,
      "___": 2586,
      "Process": 2587,
      "associated": 2588,
      "Add": 2589,
      "levels": 2590,
      "plicit": 2591,
      "5_": 2592,
      "Hear": 2593,
      "ided": 2594,
      "rou": 2595,
      "ort": 2596,
      "motivation": 2597,
      "research": 2598,
      "llig": 2599,
      "role": 2600,
      "drive": 2601,
      "ounter": 2602,
      "support": 2603,
      "Timing": 2604,
      "genuine": 2605,
      "',": 2606,
      "_metrics": 2607,
      "after": 2608,
      "belie": 2609,
      "well": 2610,
      "rein": 2611,
      "demonstr": 2612,
      "concepts": 2613,
      "prim": 2614,
      "ample": 2615,
      "open": 2616,
      "preser": 2617,
      "allen": 2618,
      "rejection": 2619,
      "clarity": 2620,
      "Perc": 2621,
      "clo": 2622,
      "cycle": 2623,
      "har": 2624,
      "lim": 2625,
      "makes": 2626,
      "uses": 2627,
      "Resources": 2628,
      "shap": 2629,
      "prerequisite": 2630,
      "teacher_": 2631,
      "Manifestation": 2632,
      "Percent": 2633,
      "Break": 2634,
      "start": 2635,
      "ques": 2636,
      "pri": 2637,
      "cos": 2638,
      "Connec": 2639,
      "identify": 2640,
      "Attr": 2641,
      "functions": 2642,
      "Intellectual": 2643,
      "exists": 2644,
      "entries": 2645,
      "ever": 2646,
      "ler": 2647,
      "match": 2648,
      "inity": 2649,
      "anci": 2650,
      "side": 2651,
      "TKS_": 2652,
      "exercise": 2653,
      "ificant": 2654,
      "changes": 2655,
      "pairs": 2656,
      "allenge": 2657,
      "Foc": 2658,
      "light": 2659,
      "layer": 2660,
      "reve": 2661,
      "rever": 2662,
      "acter": 2663,
      "ceptive": 2664,
      "higher": 2665,
      "presents": 2666,
      "domain": 2667,
      "creation": 2668,
      "possible": 2669,
      "Strateg": 2670,
      "Implementation": 2671,
      "Descrip": 2672,
      "QU": 2673,
      "SON": 2674,
      "equ": 2675,
      "non": 2676,
      "pure": 2677,
      "ested": 2678,
      "leep": 2679,
      "proc": 2680,
      "ears": 2681,
      "Address": 2682,
      "book": 2683,
      "TRA": 2684,
      "arche": 2685,
      "Arch": 2686,
      "COMP": 2687,
      "Build": 2688,
      "Cap": 2689,
      "Name": 2690,
      "Polar": 2691,
      "could": 2692,
      "jo": 2693,
      "usion": 2694,
      "wealth": 2695,
      "outputs": 2696,
      "super": 2697,
      "against": 2698,
      "lines": 2699,
      "stical": 2700,
      "brain": 2701,
      "generate": 2702,
      "Meaning": 2703,
      "occurs": 2704,
      "LLM": 2705,
      "`--": 2706,
      "aim": 2707,
      "mapping": 2708,
      "ug": 2709,
      "ination": 2710,
      "stop": 2711,
      "trod": 2712,
      "aint": 2713,
      "noetic_": 2714,
      "Description": 2715,
      "Polarity": 2716,
      "24": 2717,
      "aff": 2718,
      "bad": 2719,
      "meta": 2720,
      "next": 2721,
      "───": 2722,
      "acting": 2723,
      "with_augmented": 2724,
      "abitual": 2725,
      "operates": 2726,
      "foundations": 2727,
      "still": 2728,
      "intellectual": 2729,
      "circuit": 2730,
      "describes": 2731,
      "nu_": 2732,
      "OUND": 2733,
      "train_with_augmented": 2734,
      "emphasizes": 2735,
      "JSON": 2736,
      "eper": 2737,
      "fall": 2738,
      "help": 2739,
      "thres": 2740,
      "dep": 2741,
      "perform": 2742,
      "section": 2743,
      "ival": 2744,
      "import": 2745,
      "chains": 2746,
      "Expr": 2747,
      "scend": 2748,
      "polarity": 2749,
      "Practical": 2750,
      "Hearts": 2751,
      "lligence": 2752,
      "Mat": 2753,
      "Med": 2754,
      "PO": 2755,
      "Sit": 2756,
      "Yet": 2757,
      "ode": 2758,
      "design": 2759,
      "feels": 2760,
      "rhythms": 2761,
      "significant": 2762,
      "$$\\": 2763,
      "LEMENT": 2764,
      "Consciousness": 2765,
      "Content": 2766,
      "Current": 2767,
      "routin": 2768,
      "13": 2769,
      "6c": 2770,
      "SU": 2771,
      "ained": 2772,
      "joy": 2773,
      "lab": 2774,
      "ove": 2775,
      "sor": 2776,
      "table": 2777,
      "utral": 2778,
      "ν_": 2779,
      "always": 2780,
      "ream": 2781,
      "oles": 2782,
      "tension": 2783,
      "Real": 2784,
      "ights": 2785,
      "chapter": 2786,
      "energetic": 2787,
      "conditioned": 2788,
      "desired": 2789,
      "THE": 2790,
      "counter": 2791,
      "16": 2792,
      "affec": 2793,
      "find": 2794,
      "olution": 2795,
      "tri": 2796,
      "oft": 2797,
      "points": 2798,
      "place": 2799,
      "Constr": 2800,
      "show": 2801,
      "Formal": 2802,
      "grow": 2803,
      "mechanics": 2804,
      "90": 2805,
      "CH": 2806,
      "Law": 2807,
      "Mirror": 2808,
      "P9": 2809,
      "Sim": 2810,
      "him": 2811,
      "law": 2812,
      "retr": 2813,
      "forman": 2814,
      "above": 2815,
      "language": 2816,
      "confidence": 2817,
      "See": 2818,
      "NOT": 2819,
      "anti_attractor": 2820,
      "epochs": 2821,
      "situation": 2822,
      "formance": 2823,
      "76": 2824,
      "None": 2825,
      "cascade": 2826,
      "were": 2827,
      "esh": 2828,
      "dex": 2829,
      "acking": 2830,
      "ift": 2831,
      "never": 2832,
      "prob": 2833,
      "world_": 2834,
      "discipline": 2835,
      "desires": 2836,
      "necess": 2837,
      "conflict": 2838,
      "minutes": 2839,
      "approach": 2840,
      "everything": 2841,
      "satisfied": 2842,
      "problem": 2843,
      "ronic": 2844,
      "len": 2845,
      "long": 2846,
      "zir": 2847,
      "⟩(": 2848,
      "threat": 2849,
      "those": 2850,
      "composing": 2851,
      "Stage": 2852,
      "Feedback": 2853,
      "hidden": 2854,
      "Yetzir": 2855,
      "Yetzirah": 2856,
      "']": 2857,
      "Categ": 2858,
      "DE": 2859,
      "FOUND": 2860,
      "MO": 2861,
      "Up": 2862,
      "Xn": 2863,
      "cour": 2864,
      "hind": 2865,
      "targe": 2866,
      "yond": 2867,
      "onds": 2868,
      "inten": 2869,
      "inner": 2870,
      "olved": 2871,
      "auto": 2872,
      "peak": 2873,
      "flows": 2874,
      "associations": 2875,
      "ived": 2876,
      "signature": 2877,
      "Recur": 2878,
      "prerequisites": 2879,
      "Queen": 2880,
      "Attractor": 2881,
      "21": 2882,
      "limiting": 2883,
      "insight": 2884,
      "lem": 2885,
      "prof": 2886,
      "indiv": 2887,
      "combine": 2888,
      "expressions": 2889,
      "count": 2890,
      "certain": 2891,
      "small": 2892,
      "Kabbalah": 2893,
      "natural": 2894,
      "manipulation": 2895,
      "correct": 2896,
      "19": 2897,
      "CI": 2898,
      "End": 2899,
      "_B": 2900,
      "iom": 2901,
      "sch": 2902,
      "total": 2903,
      "emerg": 2904,
      "compassion": 2905,
      "spe": 2906,
      "hythmic": 2907,
      "crete": 2908,
      "group": 2909,
      "augmentation": 2910,
      "tically": 2911,
      "Overton": 2912,
      "Usage": 2913,
      "2d": 2914,
      "Clear": 2915,
      "Fil": 2916,
      "La": 2917,
      "Tot": 2918,
      "dynamics": 2919,
      "evidence": 2920,
      "safe": 2921,
      "intended": 2922,
      "mood": 2923,
      "Reference": 2924,
      "sym": 2925,
      "amp": 2926,
      "exper": 2927,
      "gebr": 2928,
      "Chain": 2929,
      "weight": 2930,
      "intervention": 2931,
      "object": 2932,
      "successful": 2933,
      "Workshop": 2934,
      "definitions": 2935,
      "tools": 2936,
      "memory": 2937,
      "Appendix": 2938,
      "Total": 2939,
      "Ir": 2940,
      "PAR": 2941,
      "hear": 2942,
      "habitual": 2943,
      "⁻¹": 2944,
      "rep": 2945,
      "project": 2946,
      "domin": 2947,
      "avig": 2948,
      "processes": 2949,
      "difference": 2950,
      "Loss": 2951,
      "Mathematical": 2952,
      "tax": 2953,
      "production": 2954,
      "maintain": 2955,
      "API": 2956,
      "individual": 2957,
      "ES": 2958,
      "gor": 2959,
      "Inst": 2960,
      "Input": 2961,
      "tric": 2962,
      "uality": 2963,
      "prev": 2964,
      "Noeti": 2965,
      "proper": 2966,
      "look": 2967,
      "max": 2968,
      "overn": 2969,
      "combined": 2970,
      "ARY": 2971,
      "Recogn": 2972,
      "aligned": 2973,
      "Noetica": 2974,
      "FOR": 2975,
      "Sur": 2976,
      "cted": 2977,
      "eigen": 2978,
      "oteric": 2979,
      "pes": 2980,
      "aren": 2981,
      "actic": 2982,
      "icient": 2983,
      "ablish": 2984,
      "cover": 2985,
      "Story": 2986,
      "Confidence": 2987,
      "Function": 2988,
      "habits": 2989,
      "Focus": 2990,
      "gebra": 2991,
      ".**": 2992,
      "3a": 2993,
      "4b": 2994,
      "Ach": 2995,
      "EX": 2996,
      "LI": 2997,
      "Sign": 2998,
      "nal": 2999,
      "ining": 3000,
      "sition": 3001,
      "const": 3002,
      "andom": 3003,
      "play": 3004,
      "worth": 3005,
      "illness": 3006,
      "means": 3007,
      "iber": 3008,
      "final": 3009,
      "triggered": 3010,
      "practical": 3011,
      "PASSED": 3012,
      "Practice": 3013,
      "ELEMENT": 3014,
      "Normal": 3015,
      "rules": 3016,
      "window": 3017,
      "zil": 3018,
      "quantum": 3019,
      "whether": 3020,
      "abil": 3021,
      "wards": 3022,
      "operate": 3023,
      "Atzil": 3024,
      "better": 3025,
      "commun": 3026,
      "Atziluth": 3027,
      "1d": 3028,
      "4_": 3029,
      "Counter": 3030,
      "My": 3031,
      "Wr": 3032,
      "four": 3033,
      "mu": 3034,
      "ry": 3035,
      "represents": 3036,
      "imp": 3037,
      "impro": 3038,
      "address": 3039,
      "posite": 3040,
      "contains": 3041,
      "connected": 3042,
      "repeti": 3043,
      "combines": 3044,
      "Rule": 3045,
      "below": 3046,
      "eth": 3047,
      "gence": 3048,
      "deeper": 3049,
      "hyperstition": 3050,
      "abstr": 3051,
      "auma": 3052,
      "ails": 3053,
      "keep": 3054,
      "ercises": 3055,
      "steps": 3056,
      "issues": 3057,
      "Skill": 3058,
      "reversible": 3059,
      "threshold": 3060,
      "2a": 3061,
      "Log": 3062,
      "[(": 3063,
      "iah": 3064,
      "net": 3065,
      "intention": 3066,
      "aries": 3067,
      "prec": 3068,
      "exist": 3069,
      "True": 3070,
      "add": 3071,
      "Princi": 3072,
      "ayers": 3073,
      "|-----------": 3074,
      "grounded": 3075,
      "vice": 3076,
      "avail": 3077,
      "Metrics": 3078,
      "wrong": 3079,
      "multiple": 3080,
      "projection": 3081,
      "PRO": 3082,
      "necessary": 3083,
      "Irreversible": 3084,
      "Social": 3085,
      "mit": 3086,
      "sent": 3087,
      "ture": 3088,
      "already": 3089,
      "ides": 3090,
      "Potential": 3091,
      "Prob": 3092,
      "doing": 3093,
      "interaction": 3094,
      "meditation": 3095,
      "...,": 3096,
      "blocked": 3097,
      "shifts": 3098,
      "numb": 3099,
      "protocols": 3100,
      "character": 3101,
      "automa": 3102,
      "healing": 3103,
      "sw": 3104,
      "}(": 3105,
      "ither": 3106,
      "urn": 3107,
      "Truth": 3108,
      "pressed": 3109,
      "Need": 3110,
      "posure": 3111,
      "destr": 3112,
      "minim": 3113,
      "pute": 3114,
      "impregnate": 3115,
      "Questions": 3116,
      "Assume": 3117,
      "Verify": 3118,
      "Briah": 3119,
      "Document": 3120,
      "Situation": 3121,
      "probability": 3122,
      "Cor": 3123,
      "Mapping": 3124,
      "Tests": 3125,
      "base": 3126,
      "invol": 3127,
      "ends": 3128,
      "atures": 3129,
      "another": 3130,
      "reason": 3131,
      "oubl": 3132,
      "ceed": 3133,
      "toge": 3134,
      "ulner": 3135,
      "whel": 3136,
      "plus": 3137,
      "ATIONS": 3138,
      "pathy": 3139,
      "mechanism": 3140,
      "Diagnosis": 3141,
      "provide": 3142,
      "Augment": 3143,
      "believe": 3144,
      "together": 3145,
      "AT": 3146,
      "Don": 3147,
      "Four": 3148,
      "Main": 3149,
      "Pres": 3150,
      "soft": 3151,
      "ene": 3152,
      "default": 3153,
      "accumul": 3154,
      "ief": 3155,
      "outcome": 3156,
      "begin": 3157,
      "AST": 3158,
      "responses": 3159,
      "seeing": 3160,
      "focused": 3161,
      "matrix": 3162,
      "scale": 3163,
      "repeated": 3164,
      "thesis": 3165,
      "Col": 3166,
      "Clu": 3167,
      "Py": 3168,
      "Sar": 3169,
      "Task": 3170,
      "ead": 3171,
      "pain": 3172,
      "rhythmic": 3173,
      "}$$": 3174,
      "ark": 3175,
      "ced": 3176,
      "Default": 3177,
      "ivers": 3178,
      "akil": 3179,
      "tives": 3180,
      "exc": 3181,
      "shared": 3182,
      "opport": 3183,
      "format": 3184,
      "finite": 3185,
      "direction": 3186,
      "constraints": 3187,
      "Orig": 3188,
      "event": 3189,
      "directly": 3190,
      "execution": 3191,
      "diagnosis": 3192,
      "mastery": 3193,
      "interpretation": 3194,
      "cosmic": 3195,
      "Sarah": 3196,
      "-|": 3197,
      "PAUSE": 3198,
      "STE": 3199,
      "_id": 3200,
      "lap": 3201,
      "rig": 3202,
      "yes": 3203,
      "rem": 3204,
      "lex": 3205,
      "left": 3206,
      "study": 3207,
      "elds": 3208,
      "exp": 3209,
      "uture": 3210,
      "intu": 3211,
      "Sum": 3212,
      "ground": 3213,
      "tentially": 3214,
      "clusion": 3215,
      "origin": 3216,
      "consistently": 3217,
      "Axiom": 3218,
      "Achieve": 3219,
      "6a": 3220,
      "7b": 3221,
      "Here": 3222,
      "MAL": 3223,
      "Next": 3224,
      "One": 3225,
      "Path": 3226,
      "ience": 3227,
      "list": 3228,
      "pto": 3229,
      "two": 3230,
      "inver": 3231,
      "ane": 3232,
      "theory": 3233,
      "sec": 3234,
      "Inver": 3235,
      "practic": 3236,
      "Develop": 3237,
      "ably": 3238,
      "Exercise": 3239,
      "mean": 3240,
      "formal": 3241,
      "mathematical": 3242,
      "hases": 3243,
      "Appro": 3244,
      "reflection": 3245,
      "Generate": 3246,
      "acceptance": 3247,
      ".*": 3248,
      "::=": 3249,
      "Satis": 3250,
      "factor": 3251,
      "ping": 3252,
      "visual": 3253,
      "towards": 3254,
      "precision": 3255,
      "odes": 3256,
      "amb": 3257,
      "texts": 3258,
      "Exec": 3259,
      "beyond": 3260,
      "timate": 3261,
      "root": 3262,
      "validate": 3263,
      "mystical": 3264,
      "personal": 3265,
      "┼───────┼───────┼───────┼───────": 3266,
      "loads": 3267,
      "Prime": 3268,
      "Basic": 3269,
      "coherent": 3270,
      "Mechanism": 3271,
      "demonstrates": 3272,
      "Surface": 3273,
      ");": 3274,
      "After": 3275,
      "Rate": 3276,
      "Tree": 3277,
      "_to": 3278,
      "mirror": 3279,
      "pur": 3280,
      "ones": 3281,
      "inary": 3282,
      "ores": 3283,
      "Invalid": 3284,
      "prop": 3285,
      "abot": 3286,
      "extended": 3287,
      "plot": 3288,
      "union": 3289,
      "strength": 3290,
      "Compon": 3291,
      "allows": 3292,
      "achment": 3293,
      "critical": 3294,
      "completing": 3295,
      "Maj": 3296,
      "|---------------": 3297,
      "|------------------": 3298,
      "Before": 3299,
      "architecture": 3300,
      "LOW": 3301,
      "construc": 3302,
      "OPP": 3303,
      "Assi": 3304,
      "practitioner": 3305,
      "Parallel": 3306,
      "Operators": 3307,
      "mediate": 3308,
      "Users": 3309,
      "ierarc": 3310,
      "exactly": 3311,
      "Capability": 3312,
      "Clubs": 3313,
      "ierarchy": 3314,
      "80": 3315,
      "Dire": 3316,
      "Final": 3317,
      "_D": 3318,
      "cs": 3319,
      "fac": 3320,
      "jour": 3321,
      "normal": 3322,
      "sleep": 3323,
      "wakil": 3324,
      "report": 3325,
      "receptive": 3326,
      "oubt": 3327,
      "leg": 3328,
      "essence": 3329,
      "ild": 3330,
      "aming": 3331,
      "explicit": 3332,
      "potentially": 3333,
      "gets": 3334,
      "Results": 3335,
      "isis": 3336,
      "matter": 3337,
      "════════════════════════════════": 3338,
      "Notation": 3339,
      "drawn": 3340,
      "COMPLE": 3341,
      "eshoo": 3342,
      "oubleshoo": 3343,
      "Te": 3344,
      "VI": 3345,
      "cing": 3346,
      "eks": 3347,
      "₁,": 3348,
      "dec": 3349,
      "detailed": 3350,
      "elt": 3351,
      "tence": 3352,
      "stress": 3353,
      "ously": 3354,
      "creative": 3355,
      "trace": 3356,
      "built": 3357,
      "frameworks": 3358,
      "2025": 3359,
      "|---------|": 3360,
      "sustain": 3361,
      "7_": 3362,
      "::": 3363,
      "Care": 3364,
      "Daily": 3365,
      "EC": 3366,
      "Narrative": 3367,
      "ield": 3368,
      "mess": 3369,
      "random": 3370,
      "essed": 3371,
      "represent": 3372,
      "ited": 3373,
      "calcul": 3374,
      "perf": 3375,
      "iring": 3376,
      "tell": 3377,
      "else": 3378,
      "coverage": 3379,
      "week": 3380,
      "relation": 3381,
      "consistency": 3382,
      "OPER": 3383,
      "organization": 3384,
      "multipl": 3385,
      "initial": 3386,
      "_v1": 3387,
      "effort": 3388,
      "ELEMENTS": 3389,
      "abstract": 3390,
      "oubleshooting": 3391,
      "7c": 3392,
      "Min": 3393,
      "Spar": 3394,
      "hard": 3395,
      "ware": 3396,
      "status": 3397,
      "Initi": 3398,
      "exposure": 3399,
      "compl": 3400,
      "compe": 3401,
      "comfort": 3402,
      "intelligence": 3403,
      "brid": 3404,
      "diffic": 3405,
      "community": 3406,
      "Sequ": 3407,
      "docs": 3408,
      "divided": 3409,
      "filter": 3410,
      "Evaluation": 3411,
      "tokens": 3412,
      "affinity": 3413,
      "gorithm": 3414,
      "Summary": 3415,
      "Spark": 3416,
      "%)": 3417,
      "23": 3418,
      "Dr": 3419,
      "OF": 3420,
      "cle": 3421,
      "faction": 3422,
      "job": 3423,
      "techniques": 3424,
      "reed": 3425,
      "Through": 3426,
      "Three": 3427,
      "ands": 3428,
      "case": 3429,
      "companionship": 3430,
      "composed": 3431,
      "une": 3432,
      "presence": 3433,
      "file": 3434,
      "rejected": 3435,
      "basic": 3436,
      "healthy": 3437,
      "|-------------------": 3438,
      "activation": 3439,
      "()`": 3440,
      "Only": 3441,
      "programming": 3442,
      "Assiah": 3443,
      "Gap": 3444,
      "IR": 3445,
      "Line": 3446,
      "making": 3447,
      "nect": 3448,
      "range": 3449,
      "stuck": 3450,
      "There": 3451,
      "access": 3452,
      "iever": 3453,
      "FoundationInv": 3454,
      "sue": 3455,
      "reli": 3456,
      "ook": 3457,
      "tracking": 3458,
      "claim": 3459,
      "confusion": 3460,
      "generation": 3461,
      "Design": 3462,
      "maps": 3463,
      "effectively": 3464,
      "evaluation": 3465,
      "Quick": 3466,
      "spots": 3467,
      "chaos": 3468,
      "question": 3469,
      "500": 3470,
      "Cos": 3471,
      "Emotion": 3472,
      "wa": 3473,
      "ances": 3474,
      "perce": 3475,
      "term": 3476,
      "===": 3477,
      "charge": 3478,
      "Extended": 3479,
      "Prof": 3480,
      "Act": 3481,
      "entire": 3482,
      "pace": 3483,
      "contain": 3484,
      "months": 3485,
      "Identified": 3486,
      "publ": 3487,
      "fractals": 3488,
      "angle": 3489,
      "Majik": 3490,
      "5a": 3491,
      "By": 3492,
      "Del": 3493,
      "JT": 3494,
      "NJT": 3495,
      "rup": 3496,
      "onal": 3497,
      "stories": 3498,
      "alleng": 3499,
      "distribution": 3500,
      "Start": 3501,
      "ctor": 3502,
      "validated": 3503,
      "planning": 3504,
      "Mathematics": 3505,
      "Reading": 3506,
      "strategy": 3507,
      "Hyperstition": 3508,
      "boundaries": 3509,
      "reinforce": 3510,
      "growth": 3511,
      "Upd": 3512,
      "COMPLETE": 3513,
      "29": 3514,
      "P7": 3515,
      "Pe": 3516,
      "void": 3517,
      "sider": 3518,
      "forward": 3519,
      "asing": 3520,
      "Def": 3521,
      "Experi": 3522,
      "ades": 3523,
      "proof": 3524,
      "ible": 3525,
      "having": 3526,
      "assess": 3527,
      "putation": 3528,
      "TIC": 3529,
      "therap": 3530,
      "INT": 3531,
      "serve": 3532,
      "─────┐": 3533,
      "─────┬": 3534,
      "Creative": 3535,
      "Valence": 3536,
      "components": 3537,
      "embeddings": 3538,
      "Files": 3539,
      "AD": 3540,
      "Find": 3541,
      "Pipeline": 3542,
      "TY": 3543,
      "[\"": 3544,
      "air": 3545,
      "layers": 3546,
      "phases": 3547,
      "uate": 3548,
      "vant": 3549,
      "orph": 3550,
      "reach": 3551,
      "stream": 3552,
      "concrete": 3553,
      "asks": 3554,
      "ighting": 3555,
      "Train": 3556,
      "Comp": 3557,
      "achie": 3558,
      "jective": 3559,
      "curr": 3560,
      "narrativeRole": 3561,
      "mission": 3562,
      "running": 3563,
      "Blocked": 3564,
      "coherence": 3565,
      "Category": 3566,
      "expert": 3567,
      "Augmentation": 3568,
      "TeX": 3569,
      "Career": 3570,
      "70": 3571,
      "Bec": 3572,
      "DI": 3573,
      "Dave": 3574,
      "File": 3575,
      "Ph": 3576,
      "dog": 3577,
      "danger": 3578,
      "lar": 3579,
      "p_": 3580,
      "ritual": 3581,
      "sabot": 3582,
      "ustr": 3583,
      "visi": 3584,
      "won": 3585,
      "zz": 3586,
      "arValence": 3587,
      "olation": 3588,
      "assi": 3589,
      "aspect": 3590,
      "Insight": 3591,
      "prom": 3592,
      "Requ": 3593,
      "urtur": 3594,
      "expressed": 3595,
      "Expansion": 3596,
      "Patterns": 3597,
      "manual": 3598,
      "structural": 3599,
      "partic": 3600,
      "deliber": 3601,
      "completion": 3602,
      "balance": 3603,
      "|------|------------": 3604,
      "Primary": 3605,
      "dependent": 3606,
      "semantic": 3607,
      "similarity": 3608,
      "ancial": 3609,
      "Cosmic": 3610,
      "Days": 3611,
      "MAN": 3612,
      "Pers": 3613,
      "SP": 3614,
      "Tens": 3615,
      "mut": 3616,
      "reference": 3617,
      "cally": 3618,
      "ula": 3619,
      "indices": 3620,
      "behind": 3621,
      "neutral": 3622,
      "Common": 3623,
      "══════": 3624,
      "Opp": 3625,
      "subFoundation": 3626,
      "Proof": 3627,
      "Structural": 3628,
      "generated": 3629,
      "missing": 3630,
      "run_": 3631,
      "entry": 3632,
      "scalarValence": 3633,
      "================================================================": 3634,
      "ynamic": 3635,
      "SION": 3636,
      "release": 3637,
      "PUT": 3638,
      "linked": 3639,
      "processed": 3640,
      "constant": 3641,
      "repetition": 3642,
      "75": 3643,
      "Get": 3644,
      "LD": 3645,
      "RN": 3646,
      "RATION": 3647,
      "](": 3648,
      "fam": 3649,
      "num": 3650,
      "ram": 3651,
      "also": 3652,
      "index": 3653,
      "ital": 3654,
      "ards": 3655,
      "call": 3656,
      "que": 3657,
      "quad": 3658,
      "trine": 3659,
      "trauma": 3660,
      "apped": 3661,
      "implementation": 3662,
      "opposing": 3663,
      "ibr": 3664,
      "Comb": 3665,
      "Change": 3666,
      "Choose": 3667,
      "Optim": 3668,
      "created": 3669,
      "grad": 3670,
      "ASK": 3671,
      "ifying": 3672,
      "Order": 3673,
      "development": 3674,
      "Kabbalistic": 3675,
      "Value": 3676,
      "irmation": 3677,
      "tootra": 3678,
      "Continu": 3679,
      "holds": 3680,
      "fixed": 3681,
      "depth": 3682,
      "Principle": 3683,
      "Original": 3684,
      "Tensor": 3685,
      "(^": 3686,
      "Ascend": 3687,
      "Cycles": 3688,
      "PH": 3689,
      "Pas": 3690,
      "Techniques": 3691,
      "ego": 3692,
      "||": 3693,
      "attem": 3694,
      "defin": 3695,
      "persist": 3696,
      "stac": 3697,
      "moke": 3698,
      "ulting": 3699,
      "ighten": 3700,
      "pot": 3701,
      "word": 3702,
      "scill": 3703,
      "Most": 3704,
      "ycl": 3705,
      "selves": 3706,
      "physically": 3707,
      "ultane": 3708,
      "Group": 3709,
      "Building": 3710,
      "iverse": 3711,
      "axes": 3712,
      "Quantum": 3713,
      "psychological": 3714,
      "recognition": 3715,
      "sufficient": 3716,
      "Conditioning": 3717,
      "Semantic": 3718,
      "Recursive": 3719,
      "7a": 3720,
      "Cir": 3721,
      "Di": 3722,
      "WOR": 3723,
      "lon": 3724,
      "men": 3725,
      "osis": 3726,
      "treat": 3727,
      "years": 3728,
      "ensi": 3729,
      "encode": 3730,
      "ison": 3731,
      "calm": 3732,
      "seem": 3733,
      "Deha": 3734,
      "ifically": 3735,
      "indic": 3736,
      "expansion": 3737,
      "early": 3738,
      "Notice": 3739,
      "encies": 3740,
      "TIVE": 3741,
      "class": 3742,
      "single": 3743,
      "capability": 3744,
      "downloads": 3745,
      "Method": 3746,
      "Shift": 3747,
      "________________________________________________": 3748,
      "instability": 3749,
      "Specific": 3750,
      "progress": 3751,
      "NEW": 3752,
      "market": 3753,
      "compatible": 3754,
      "precise": 3755,
      "ulnerability": 3756,
      "practices": 3757,
      "38": 3758,
      "FR": 3759,
      "Sele": 3760,
      "^{": 3761,
      "_model": 3762,
      "gre": 3763,
      "ibe": 3764,
      "performance": 3765,
      "modes": 3766,
      "contexts": 3767,
      "aps": 3768,
      "append": 3769,
      "expected": 3770,
      "worry": 3771,
      "strict": 3772,
      "forms": 3773,
      "IDE": 3774,
      "subconscious": 3775,
      "─────┴": 3776,
      "dimen": 3777,
      "Outcome": 3778,
      "trying": 3779,
      "draws": 3780,
      "Emerg": 3781,
      "Connecting": 3782,
      "LaTeX": 3783,
      "available": 3784,
      "Satisfied": 3785,
      "(♊": 3786,
      ":\\": 3787,
      "LU": 3788,
      "P8": 3789,
      "Sp": 3790,
      "Vitality": 3791,
      "]──": 3792,
      "bod": 3793,
      "evolution": 3794,
      "tle": 3795,
      "utions": 3796,
      "ying": 3797,
      "₂,": 3798,
      "moment": 3799,
      "activity": 3800,
      "Environ": 3801,
      "Ref": 3802,
      "child": 3803,
      "nothing": 3804,
      "ression": 3805,
      "canon": 3806,
      "Super": 3807,
      "weights": 3808,
      "Advanced": 3809,
      "changed": 3810,
      "─────┘": 3811,
      "osop": 3812,
      "resonates": 3813,
      "activates": 3814,
      "write": 3815,
      "Config": 3816,
      "behaviors": 3817,
      "Predic": 3818,
      "echnique": 3819,
      "routines": 3820,
      "Initial": 3821,
      "4a": 3822,
      "And": 3823,
      "Co": 3824,
      "MARY": 3825,
      "Testing": 3826,
      "fill": 3827,
      "iance": 3828,
      "san": 3829,
      "says": 3830,
      "ude": 3831,
      "vag": 3832,
      "{\\": 3833,
      "energ": 3834,
      "ession": 3835,
      "------": 3836,
      "appli": 3837,
      "emin": 3838,
      "rest": 3839,
      "Proper": 3840,
      "driven": 3841,
      "standard": 3842,
      "remove": 3843,
      "From": 3844,
      "guide": 3845,
      "ficial": 3846,
      "follows": 3847,
      "Decision": 3848,
      "Within": 3849,
      "|----------|": 3850,
      "Engineering": 3851,
      "protec": 3852,
      "career": 3853,
      "everthing": 3854,
      "applied": 3855,
      "(♋": 3856,
      "17": 3857,
      "Ep": 3858,
      "Visual": 3859,
      "Window": 3860,
      "_A": 3861,
      "gate": 3862,
      "lighten": 3863,
      "pol": 3864,
      "{\"": 3865,
      "altern": 3866,
      "acquire": 3867,
      "ilosop": 3868,
      "preme": 3869,
      "comprehensive": 3870,
      "Note": 3871,
      "advanced": 3872,
      "aged": 3873,
      "Prot": 3874,
      "formed": 3875,
      "asser": 3876,
      "Format": 3877,
      "fee": 3878,
      "peace": 3879,
      "iagram": 3880,
      "known": 3881,
      "Analy": 3882,
      "writing": 3883,
      "push": 3884,
      "satisfaction": 3885,
      "blocking": 3886,
      "syntax": 3887,
      "token": 3888,
      "joining": 3889,
      "troduce": 3890,
      "Install": 3891,
      "Problem": 3892,
      "Python": 3893,
      "Linear": 3894,
      "Defense": 3895,
      "urturing": 3896,
      "═══════": 3897,
      "27": 3898,
      "?)": 3899,
      "Human": 3900,
      "Met": 3901,
      "TASK": 3902,
      "ather": 3903,
      "hist": 3904,
      "liter": 3905,
      "m_": 3906,
      "stim": 3907,
      "tt": 3908,
      "vo": 3909,
      "alog": 3910,
      "ines": 3911,
      "sex": 3912,
      "track": 3913,
      "amorph": 3914,
      "ounds": 3915,
      "imag": 3916,
      "chronic": 3917,
      "symbols": 3918,
      "adical": 3919,
      "seline": 3920,
      "Acquire": 3921,
      "parison": 3922,
      "plans": 3923,
      "processor": 3924,
      "stitu": 3925,
      "themselves": 3926,
      "metamorph": 3927,
      "errors": 3928,
      "GET": 3929,
      "spot": 3930,
      "management": 3931,
      "primary": 3932,
      "reveal": 3933,
      "metamorphosis": 3934,
      "Dynamics": 3935,
      "EQU": 3936,
      "Mor": 3937,
      "P11": 3938,
      "Source": 3939,
      "samples": 3940,
      "take": 3941,
      "zing": 3942,
      "influ": 3943,
      "atten": 3944,
      "ants": 3945,
      "situ": 3946,
      "itude": 3947,
      "celer": 3948,
      "contr": 3949,
      "Enh": 3950,
      "ocation": 3951,
      "happen": 3952,
      "unch": 3953,
      "Comprehensive": 3954,
      "structuring": 3955,
      "emotionally": 3956,
      "Challenge": 3957,
      "Sup": 3958,
      "vision": 3959,
      "related": 3960,
      "ventions": 3961,
      "interactions": 3962,
      "validity": 3963,
      "overwhel": 3964,
      "lik": 3965,
      "ASE": 3966,
      "engthen": 3967,
      "RETU": 3968,
      "connections": 3969,
      "avoidance": 3970,
      "execute": 3971,
      "analyze": 3972,
      "objects": 3973,
      "NLP": 3974,
      "shape": 3975,
      "Architecture": 3976,
      "impact": 3977,
      "Spades": 3978,
      "situations": 3979,
      "RETURN": 3980,
      "CLI": 3981,
      "Make": 3982,
      "])": 3983,
      "bre": 3984,
      "govern": 3985,
      "oss": 3986,
      "}`": 3987,
      "├──": 3988,
      "around": 3989,
      "stud": 3990,
      "motiv": 3991,
      "tered": 3992,
      "apt": 3993,
      "acts": 3994,
      "pirit": 3995,
      "applying": 3996,
      "imm": 3997,
      "coord": 3998,
      "exam": 3999,
      "explan": 4000,
      "Context": 4001,
      "Conclusion": 4002,
      "======": 4003,
      "ops": 4004,
      "validator": 4005,
      "Syn": 4006,
      "dict": 4007,
      "Creation": 4008,
      "simultane": 4009,
      "Systems": 4010,
      "matters": 4011,
      "keys": 4012,
      "protection": 4013,
      "similar": 4014,
      "negativity": 4015,
      "Strategies": 4016,
      "course": 4017,
      "_idx": 4018,
      "reedom": 4019,
      "Actually": 4020,
      "Epoch": 4021,
      "Space": 4022,
      "car": 4023,
      "cus": 4024,
      "doubt": 4025,
      "pite": 4026,
      "techn": 4027,
      "watch": 4028,
      "yet": 4029,
      "esoteric": 4030,
      "sibility": 4031,
      "cell": 4032,
      "second": 4033,
      "consequences": 4034,
      "Influence": 4035,
      "offee": 4036,
      "Detailed": 4037,
      "tinct": 4038,
      "agent": 4039,
      "Point": 4040,
      "cross": 4041,
      "despite": 4042,
      "ALLOW": 4043,
      "positions": 4044,
      "upd": 4045,
      "templ": 4046,
      "going": 4047,
      "signals": 4048,
      "COL": 4049,
      "Functional": 4050,
      "handling": 4051,
      "Percenters": 4052,
      "safety": 4053,
      "Requires": 4054,
      "ALLOWED": 4055,
      "45": 4056,
      "85": 4057,
      "Cer": 4058,
      "Even": 4059,
      "Ego": 4060,
      "Sat": 4061,
      "Sex": 4062,
      "Using": 4063,
      "War": 4064,
      "best": 4065,
      "dam": 4066,
      "either": 4067,
      "gives": 4068,
      "io": 4069,
      "ped": 4070,
      "rs": 4071,
      "vr": 4072,
      "νᵢ": 4073,
      "┌────────────────────────────────": 4074,
      "inher": 4075,
      "inference": 4076,
      "sig": 4077,
      "arding": 4078,
      "determin": 4079,
      "Reverse": 4080,
      "resource": 4081,
      "scores": 4082,
      "izer": 4083,
      "dist": 4084,
      "dram": 4085,
      "testing": 4086,
      "Canon": 4087,
      "Implement": 4088,
      "clearly": 4089,
      "events": 4090,
      "failures": 4091,
      "cript": 4092,
      "heart": 4093,
      "PROTO": 4094,
      "iversal": 4095,
      "_to_": 4096,
      "\"—": 4097,
      "(~": 4098,
      ">>": 4099,
      "Ak": 4100,
      "CU": 4101,
      "CAUSE": 4102,
      "Div": 4103,
      "Emb": 4104,
      "Mature": 4105,
      "Nu": 4106,
      "Of": 4107,
      "Psych": 4108,
      "SF": 4109,
      "Sing": 4110,
      "Same": 4111,
      "X_": 4112,
      "bro": 4113,
      "merg": 4114,
      "nature": 4115,
      "┼─────────────────": 4116,
      "atmo": 4117,
      "deb": 4118,
      "Incre": 4119,
      "appear": 4120,
      "implement": 4121,
      "challenge": 4122,
      "Track": 4123,
      "ucking": 4124,
      "maj": 4125,
      "Expressions": 4126,
      "Supreme": 4127,
      "parallel": 4128,
      "cording": 4129,
      "deliver": 4130,
      "Frame": 4131,
      "head": 4132,
      "ount": 4133,
      "atically": 4134,
      "changing": 4135,
      "itement": 4136,
      "ashic": 4137,
      "personality": 4138,
      "actively": 4139,
      "strategies": 4140,
      "loops": 4141,
      "issue": 4142,
      "Semantics": 4143,
      "involves": 4144,
      "People": 4145,
      "======================================================================": 4146,
      "Akashic": 4147,
      "\"],": 4148,
      "%]": 4149,
      ")]": 4150,
      "Cover": 4151,
      "D_": 4152,
      "TAR": 4153,
      "ben": 4154,
      "gges": 4155,
      "₄,": 4156,
      "inish": 4157,
      "atory": 4158,
      "debt": 4159,
      "seq": 4160,
      "pread": 4161,
      "Trad": 4162,
      "resulting": 4163,
      "Research": 4164,
      "Accept": 4165,
      "flag": 4166,
      "Addition": 4167,
      "seeking": 4168,
      "Weak": 4169,
      "simple": 4170,
      "Knowing": 4171,
      "appropri": 4172,
      "cern": 4173,
      "Ampl": 4174,
      "wants": 4175,
      "receive": 4176,
      "attachment": 4177,
      "documentation": 4178,
      "component": 4179,
      "allowed": 4180,
      "compatibility": 4181,
      "convergence": 4182,
      "sched": 4183,
      "STEP": 4184,
      "Component": 4185,
      "PROTOCOL": 4186,
      "95": 4187,
      ":,": 4188,
      "Cult": 4189,
      "MB": 4190,
      "Quality": 4191,
      "Sec": 4192,
      "ctr": 4193,
      "ho": 4194,
      "ian": 4195,
      "save": 4196,
      "ys": 4197,
      "νₖ": 4198,
      "alone": 4199,
      "invalid": 4200,
      "ists": 4201,
      "argu": 4202,
      "Then": 4203,
      "connect": 4204,
      "truct": 4205,
      "ulty": 4206,
      "Depend": 4207,
      "Internal": 4208,
      "choose": 4209,
      "challeng": 4210,
      "universe": 4211,
      "Node": 4212,
      "resist": 4213,
      "struc": 4214,
      "agg": 4215,
      "Progr": 4216,
      "measure": 4217,
      "Compati": 4218,
      "equation_": 4219,
      "ators": 4220,
      "Sym": 4221,
      "Issue": 4222,
      "pull": 4223,
      "NOE": 4224,
      "reduce": 4225,
      "TOO": 4226,
      "wanting": 4227,
      "─────┼─────┼─────┼─────┼": 4228,
      "fuel": 4229,
      "reveals": 4230,
      "improve": 4231,
      "reasoning": 4232,
      "Preser": 4233,
      "MALE": 4234,
      "propag": 4235,
      "─────┬─────┬": 4236,
      "─────┴─────┴": 4237,
      "Bod": 4238,
      "CS": 4239,
      "Dive": 4240,
      "Hand": 4241,
      "Red": 4242,
      "Ter": 4243,
      "`/": 4244,
      "asi": 4245,
      "atives": 4246,
      "flo": 4247,
      "sure": 4248,
      "ub": 4249,
      "stages": 4250,
      "Retr": 4251,
      "amonds": 4252,
      "Troubleshooting": 4253,
      "Consist": 4254,
      "unctor": 4255,
      "encoding": 4256,
      "metry": 4257,
      "cannot": 4258,
      "itique": 4259,
      "drives": 4260,
      "panded": 4261,
      "fears": 4262,
      "successfully": 4263,
      "describe": 4264,
      "regulation": 4265,
      "maint": 4266,
      "sensations": 4267,
      "solution": 4268,
      "Repe": 4269,
      "Brain": 4270,
      "diagnose": 4271,
      "continue": 4272,
      "Continuation": 4273,
      "decisions": 4274,
      "includes": 4275,
      "repel": 4276,
      "dominant": 4277,
      "characteristic": 4278,
      "achieving": 4279,
      "Diamonds": 4280,
      "Single": 4281,
      "26": 4282,
      "DO": 4283,
      "Eso": 4284,
      "FI": 4285,
      "Fin": 4286,
      "Lab": 4287,
      "Navig": 4288,
      "So": 4289,
      "Speak": 4290,
      "Tok": 4291,
      "Was": 4292,
      "_OP": 4293,
      "found": 4294,
      "felt": 4295,
      "hit": 4296,
      "round": 4297,
      "wp_": 4298,
      "iding": 4299,
      "moving": 4300,
      "according": 4301,
      "Inclu": 4302,
      "ecks": 4303,
      "ulate": 4304,
      "poor": 4305,
      "Conver": 4306,
      "string": 4307,
      "establish": 4308,
      "made": 4309,
      "mathematics": 4310,
      "attract": 4311,
      "herself": 4312,
      "timacy": 4313,
      "away": 4314,
      "transmit": 4315,
      "chann": 4316,
      "dataset": 4317,
      "Complex": 4318,
      "Integr": 4319,
      "anything": 4320,
      "typal": 4321,
      "|-------|-------": 4322,
      "construction": 4323,
      "ique": 4324,
      "organized": 4325,
      "OUT": 4326,
      "_v7": 4327,
      "files": 4328,
      "offers": 4329,
      "aphor": 4330,
      "configuration": 4331,
      "laws": 4332,
      "ethical": 4333,
      "Traditional": 4334,
      "structions": 4335,
      "Esoteric": 4336,
      "')": 4337,
      "AGE": 4338,
      "DA": 4339,
      "Dif": 4340,
      "N7": 4341,
      "YES": 4342,
      "cycl": 4343,
      "dir": 4344,
      "gain": 4345,
      "gue": 4346,
      "hop": 4347,
      "ior": 4348,
      "iency": 4349,
      "ride": 4350,
      "sal": 4351,
      "task": 4352,
      "isting": 4353,
      "Who": 4354,
      "Involution": 4355,
      "Return": 4356,
      "Equations": 4357,
      "expect": 4358,
      "example": 4359,
      "fra": 4360,
      "unities": 4361,
      "resolved": 4362,
      "score": 4363,
      "aying": 4364,
      "agement": 4365,
      "amplified": 4366,
      "Definitions": 4367,
      "conditions": 4368,
      "baseline": 4369,
      "Created": 4370,
      "directed": 4371,
      "command": 4372,
      "reading": 4373,
      "passed": 4374,
      "approx": 4375,
      "Verification": 4376,
      "separate": 4377,
      "install": 4378,
      "fails": 4379,
      "Without": 4380,
      "ierarch": 4381,
      "summary": 4382,
      "holding": 4383,
      "explo": 4384,
      "ximately": 4385,
      "ithmetic": 4386,
      "falls": 4387,
      "Matrix": 4388,
      "correctly": 4389,
      "multiplies": 4390,
      "Experience": 4391,
      "sabotage": 4392,
      "saniti": 4393,
      "vague": 4394,
      "Protection": 4395,
      "simultaneously": 4396,
      "atmosphere": 4397,
      "(`": 4398,
      "Cit": 4399,
      "List": 4400,
      "Long": 4401,
      "TER": 4402,
      "VAL": 4403,
      "_W": 4404,
      "`**": 4405,
      "cases": 4406,
      "due": 4407,
      "fit": 4408,
      "sample": 4409,
      "tism": 4410,
      "involution": 4411,
      "ership": 4412,
      "ising": 4413,
      "arily": 4414,
      "sty": 4415,
      "quick": 4416,
      "ticism": 4417,
      "notice": 4418,
      "compute": 4419,
      "highest": 4420,
      "adness": 4421,
      "shit": 4422,
      "ibility": 4423,
      "Active": 4424,
      "parame": 4425,
      "discus": 4426,
      "TICAL": 4427,
      "causation": 4428,
      "getting": 4429,
      "period": 4430,
      "ixed": 4431,
      "Loop": 4432,
      "fiction": 4433,
      "passing": 4434,
      "instead": 4435,
      "Keep": 4436,
      "Moder": 4437,
      "starting": 4438,
      "methods": 4439,
      "linear": 4440,
      "increase": 4441,
      "include": 4442,
      "category": 4443,
      "categories": 4444,
      "olescent": 4445,
      "Simple": 4446,
      "retriever": 4447,
      "Write": 4448,
      "explicitly": 4449,
      "perfect": 4450,
      "therapy": 4451,
      "Often": 4452,
      "Coverage": 4453,
      "NOETIC": 4454,
      "TOOTRA": 4455,
      "Label": 4456,
      "OUTPUT": 4457,
      "Citta": 4458,
      "May": 4459,
      "Solution": 4460,
      "_1": 4461,
      "bonds": 4462,
      "dden": 4463,
      "future": 4464,
      "hood": 4465,
      "smoke": 4466,
      "₁:": 4467,
      "reject": 4468,
      "forcing": 4469,
      "**`": 4470,
      "terr": 4471,
      "astive": 4472,
      "unit": 4473,
      "unmet": 4474,
      "aud": 4475,
      "adds": 4476,
      "added": 4477,
      "adata": 4478,
      "Formula": 4479,
      "cred": 4480,
      "worked": 4481,
      "gram": 4482,
      "graph": 4483,
      "jection": 4484,
      "specifically": 4485,
      "powerful": 4486,
      "Provid": 4487,
      "Load": 4488,
      "diminish": 4489,
      "descrip": 4490,
      "activate": 4491,
      "Higher": 4492,
      "_d5": 4493,
      "Spectral": 4494,
      "maybe": 4495,
      "Partner": 4496,
      "Conditions": 4497,
      "objective": 4498,
      "previous": 4499,
      "intuition": 4500,
      "distance": 4501,
      "cyclical": 4502,
      "$\\": 4503,
      "(♌": 4504,
      "CP": 4505,
      "Effec": 4506,
      "FU": 4507,
      "Gu": 4508,
      "MIN": 4509,
      "N5": 4510,
      "Net": 4511,
      "\\{": 4512,
      "`)": 4513,
      "gle": 4514,
      "jud": 4515,
      "length": 4516,
      "norm": 4517,
      "nurturing": 4518,
      "roles": 4519,
      "suc": 4520,
      "zer": 4521,
      "sity": 4522,
      "stability": 4523,
      "modif": 4524,
      "convers": 4525,
      "contraction": 4526,
      "consider": 4527,
      "aces": 4528,
      "acing": 4529,
      "iction": 4530,
      "tiny": 4531,
      "cope": 4532,
      "ucial": 4533,
      "symbolic": 4534,
      "short": 4535,
      "suite": 4536,
      "ney": 4537,
      "Acq": 4538,
      "transfer": 4539,
      "Adolescent": 4540,
      ")))": 4541,
      "commit": 4542,
      "circul": 4543,
      "embod": 4544,
      "_augmented_": 4545,
      "applic": 4546,
      "_mvr": 4547,
      "TURE": 4548,
      "receives": 4549,
      "FOUNDATION": 4550,
      "minimum": 4551,
      "accumulates": 4552,
      "bridge": 4553,
      "EQUATION": 4554,
      "inherent": 4555,
      "('": 4556,
      "36": 4557,
      "39": 4558,
      "400": 4559,
      "Has": 4560,
      "More": 4561,
      "UAL": 4562,
      "give": 4563,
      "navig": 4564,
      "pts": 4565,
      "spread": 4566,
      "uted": 4567,
      "uits": 4568,
      "v1": 4569,
      "vious": 4570,
      "wave": 4571,
      "tification": 4572,
      "refine": 4573,
      "perception": 4574,
      "omb": 4575,
      "asm": 4576,
      "qual": 4577,
      "tract": 4578,
      "ultimate": 4579,
      "Rele": 4580,
      "tiveness": 4581,
      "cho": 4582,
      "urity": 4583,
      "urally": 4584,
      "nosis": 4585,
      "frustr": 4586,
      "Exercises": 4587,
      "Across": 4588,
      "Opposite": 4589,
      "crisis": 4590,
      "arrow": 4591,
      "Anti": 4592,
      "INVER": 4593,
      "product": 4594,
      "losses": 4595,
      "TED": 4596,
      "signal": 4597,
      "setting": 4598,
      "regarding": 4599,
      "checkpoint": 4600,
      "sensation": 4601,
      "solid": 4602,
      "empty": 4603,
      "predictable": 4604,
      "details": 4605,
      "Multiple": 4606,
      "conditional": 4607,
      "Commut": 4608,
      "Evaluate": 4609,
      "semantics": 4610,
      "accuracy": 4611,
      "preserved": 4612,
      "intense": 4613,
      "Continuing": 4614,
      "stacles": 4615,
      "Emergency": 4616,
      "major": 4617,
      "appropriate": 4618,
      "CSV": 4619,
      "Token": 4620,
      "01": 4621,
      "6_": 4622,
      "Bi": 4623,
      "Book": 4624,
      "Est": 4625,
      "Flow": 4626,
      "KE": 4627,
      "Two": 4628,
      "`.": 4629,
      "eff": 4630,
      "fo": 4631,
      "iend": 4632,
      "night": 4633,
      "pha": 4634,
      "algebra": 4635,
      "TKS_v7": 4636,
      "isolation": 4637,
      "omen": 4638,
      "ape": 4639,
      "assume": 4640,
      "trip": 4641,
      "ulus": 4642,
      "abs": 4643,
      "impul": 4644,
      "exclu": 4645,
      "exercises": 4646,
      "common": 4647,
      "Expected": 4648,
      "Pole": 4649,
      "Position": 4650,
      "Prod": 4651,
      "Manual": 4652,
      "answ": 4653,
      "ender": 4654,
      "viol": 4655,
      "fields": 4656,
      "────────────────────────": 4657,
      "obtain": 4658,
      "seek": 4659,
      "faith": 4660,
      "transformed": 4661,
      "Overview": 4662,
      "author": 4663,
      "sustained": 4664,
      "expr_": 4665,
      "ximum": 4666,
      "traditional": 4667,
      "harmon": 4668,
      "archetype": 4669,
      "automatically": 4670,
      "excitement": 4671,
      "opportunities": 4672,
      "expand": 4673,
      "Deliver": 4674,
      "dimension": 4675,
      "bodily": 4676,
      "TARGET": 4677,
      "(+": 4678,
      ")}": 4679,
      "8_": 4680,
      "Binary": 4681,
      "Did": 4682,
      "F_": 4683,
      "MU": 4684,
      "Mem": 4685,
      "Safe": 4686,
      "Teach": 4687,
      "Ven": 4688,
      "WH": 4689,
      "_i": 4690,
      "dat": 4691,
      "easi": 4692,
      "fact": 4693,
      "gest": 4694,
      "ium": 4695,
      "lation": 4696,
      "ots": 4697,
      "raw": 4698,
      "takes": 4699,
      "νⱼ": 4700,
      "once": 4701,
      "institu": 4702,
      "reaction": 4703,
      "itable": 4704,
      "arti": 4705,
      "moves": 4706,
      "terms": 4707,
      "iciency": 4708,
      "andon": 4709,
      "Theory": 4710,
      "absor": 4711,
      "ticing": 4712,
      "tend": 4713,
      "verification": 4714,
      "immediate": 4715,
      "strengthen": 4716,
      "outside": 4717,
      "meas": 4718,
      "Motivation": 4719,
      "ancement": 4720,
      "Algebra": 4721,
      "Char": 4722,
      "parse": 4723,
      "direc": 4724,
      "failed": 4725,
      "training_metrics": 4726,
      "|----------------|": 4727,
      "Being": 4728,
      "engineer": 4729,
      "|-------|": 4730,
      "providers": 4731,
      "temporal": 4732,
      "divides": 4733,
      "developed": 4734,
      "surface": 4735,
      "analyzing": 4736,
      "problems": 4737,
      "scenarios": 4738,
      "didn": 4739,
      "routine": 4740,
      "automatic": 4741,
      "Collective": 4742,
      "difficult": 4743,
      "|-------------------|": 4744,
      "Personal": 4745,
      "Division": 4746,
      "merges": 4747,
      "Establish": 4748,
      "Venus": 4749,
      ")`": 4750,
      "Aud": 4751,
      "CTURE": 4752,
      "FE": 4753,
      "Ser": 4754,
      "Scal": 4755,
      "W4": 4756,
      "affect": 4757,
      "blueprint": 4758,
      "eting": 4759,
      "fighting": 4760,
      "hat": 4761,
      "ners": 4762,
      "ox": 4763,
      "rp": 4764,
      "ris": 4765,
      "rates": 4766,
      "year": 4767,
      "┌────────": 4768,
      "├─": 4769,
      "inputs": 4770,
      "ouch": 4771,
      "dem": 4772,
      "igu": 4773,
      "abandon": 4774,
      "framing": 4775,
      "uctive": 4776,
      "restruct": 4777,
      "aude": 4778,
      "sudden": 4779,
      "feed": 4780,
      "Chronic": 4781,
      "distor": 4782,
      "Stakes": 4783,
      "ending": 4784,
      "systematically": 4785,
      "Transform": 4786,
      "Attention": 4787,
      "atigue": 4788,
      "month": 4789,
      "Steps": 4790,
      "|--------------": 4791,
      "pressure": 4792,
      "150": 4793,
      "session": 4794,
      "funds": 4795,
      "tks_": 4796,
      "Version": 4797,
      "currently": 4798,
      "predictions": 4799,
      "embedded": 4800,
      "naturally": 4801,
      "accurate": 4802,
      "Arche": 4803,
      "POSI": 4804,
      "network": 4805,
      "number": 4806,
      "csv": 4807,
      "dangerous": 4808,
      "larger": 4809,
      "deliberately": 4810,
      "Circ": 4811,
      "WORLD": 4812,
      "aptation": 4813,
      "INVERSION": 4814,
      "Both": 4815,
      "Cha": 4816,
      "Eigen": 4817,
      "False": 4818,
      "Good": 4819,
      "IC": 4820,
      "Ign": 4821,
      "aded": 4822,
      "averse": 4823,
      "bit": 4824,
      "done": 4825,
      "fatigue": 4826,
      "gency": 4827,
      "kind": 4828,
      "pare": 4829,
      "slow": 4830,
      "sensi": 4831,
      "uates": 4832,
      "ume": 4833,
      "wal": 4834,
      "₂:": 4835,
      "₆,": 4836,
      "thu": 4837,
      "theorem": 4838,
      "dead": 4839,
      "acade": 4840,
      "illu": 4841,
      "Resistance": 4842,
      "ipe": 4843,
      "encing": 4844,
      "managing": 4845,
      "heav": 4846,
      "oot": 4847,
      "stics": 4848,
      "READ": 4849,
      "template": 4850,
      "Weeks": 4851,
      "generates": 4852,
      "|-------------": 4853,
      "logs": 4854,
      "────────────────────────────────────────": 4855,
      "axis": 4856,
      "combinations": 4857,
      "handle": 4858,
      "memories": 4859,
      "psychic": 4860,
      "Based": 4861,
      "Module": 4862,
      "scenario_": 4863,
      "thinkable": 4864,
      "tradition": 4865,
      "close": 4866,
      "equals": 4867,
      "triple": 4868,
      "world_states": 4869,
      "PART": 4870,
      "EXP": 4871,
      "communication": 4872,
      "music": 4873,
      "assessment": 4874,
      "|------|------------|------------------": 4875,
      "constantly": 4876,
      "|-------|-------|------|------------|------------------": 4877,
      ")(": 4878,
      "Ab": 4879,
      "Ask": 4880,
      "Code": 4881,
      "Eth": 4882,
      "Healing": 4883,
      "Mag": 4884,
      "_2": 4885,
      "af": 4886,
      "dwp_": 4887,
      "fucking": 4888,
      "hib": 4889,
      "hierarchy": 4890,
      "lacks": 4891,
      "tre": 4892,
      "tasks": 4893,
      "uff": 4894,
      "vis": 4895,
      "₅,": 4896,
      "tial": 4897,
      "enal": 4898,
      "reactions": 4899,
      "Indiv": 4900,
      "Instructions": 4901,
      "ili": 4902,
      "tination": 4903,
      "ocks": 4904,
      "culture": 4905,
      "urable": 4906,
      "coming": 4907,
      "comparison": 4908,
      "universal": 4909,
      "unique": 4910,
      "ipher": 4911,
      "domains": 4912,
      "triggering": 4913,
      "Stability": 4914,
      "flaw": 4915,
      "Subtraction": 4916,
      "interventions": 4917,
      "knows": 4918,
      "elev": 4919,
      "Frac": 4920,
      "manifests": 4921,
      "classi": 4922,
      "Second": 4923,
      "Types": 4924,
      "philosop": 4925,
      "circuits": 4926,
      "batch_": 4927,
      "fundamentally": 4928,
      "sights": 4929,
      "sump": 4930,
      "continu": 4931,
      "starts": 4932,
      "Sometimes": 4933,
      "morning": 4934,
      "fuzz": 4935,
      "archetypal": 4936,
      "designed": 4937,
      "approaches": 4938,
      "targets": 4939,
      "groups": 4940,
      "Documentation": 4941,
      "eventually": 4942,
      "inverted": 4943,
      "compliance": 4944,
      "emini": 4945,
      "likely": 4946,
      "repelled": 4947,
      "thusi": 4948,
      "|-------|-------|------|------------|------------------|---------|": 4949,
      "Individual": 4950,
      "([": 4951,
      "32": 4952,
      "Back": 4953,
      "Hard": 4954,
      "Hierarchy": 4955,
      "Radical": 4956,
      "Sm": 4957,
      "Stop": 4958,
      "W7": 4959,
      "aster": 4960,
      "carr": 4961,
      "hi": 4962,
      "kit": 4963,
      "nested": 4964,
      "thr": 4965,
      "ats": 4966,
      "orical": 4967,
      "anges": 4968,
      "oud": 4969,
      "perature": 4970,
      "stance": 4971,
      "moon": 4972,
      "asy": 4973,
      "trust": 4974,
      "elim": 4975,
      "Calculus": 4976,
      "image": 4977,
      "express": 4978,
      "computation": 4979,
      "unchanged": 4980,
      "etary": 4981,
      "Resource": 4982,
      "optional": 4983,
      "Manip": 4984,
      "correl": 4985,
      "TIME": 4986,
      "workshop": 4987,
      "web": 4988,
      "deser": 4989,
      "traject": 4990,
      "collap": 4991,
      "ACT": 4992,
      "capable": 4993,
      "existence": 4994,
      "activations": 4995,
      "senses": 4996,
      "Practition": 4997,
      "metadata": 4998,
      "satisfy": 4999,
      "Everything": 5000,
      "detection": 5001,
      "Multiplication": 5002,
      "Ready": 5003,
      "invest": 5004,
      "documented": 5005,
      "relevant": 5006,
      "Breakdown": 5007,
      "Connection": 5008,
      "Meditation": 5009,
      "ν_k": 5010,
      "affects": 5011,
      "Laws": 5012,
      "FOUNDATIONS": 5013,
      "rigid": 5014,
      "ptom": 5015,
      "validate_": 5016,
      "Because": 5017,
      "IDEA": 5018,
      "Morning": 5019,
      "coordin": 5020,
      ">>=": 5021,
      "VALID": 5022,
      "scenario_inversion": 5023,
      "thusiasm": 5024,
      "=-": 5025,
      "ITE": 5026,
      "NA": 5027,
      "Pl": 5028,
      "W1": 5029,
      "_len": 5030,
      "bed": 5031,
      "coffee": 5032,
      "fir": 5033,
      "ields": 5034,
      "la": 5035,
      "linking": 5036,
      "oh": 5037,
      "physi": 5038,
      "phis": 5039,
      "rati": 5040,
      "instr": 5041,
      "independent": 5042,
      "ensive": 5043,
      "enables": 5044,
      "really": 5045,
      "season": 5046,
      "Information": 5047,
      "ird": 5048,
      "iler": 5049,
      "tensor": 5050,
      "Review": 5051,
      "empathy": 5052,
      "External": 5053,
      "option": 5054,
      "options": 5055,
      "Forty": 5056,
      "Algorithm": 5057,
      "Tempor": 5058,
      "attractive": 5059,
      "disorder": 5060,
      "ummy": 5061,
      "Att": 5062,
      "supporting": 5063,
      "Chapters": 5064,
      "──────┘": 5065,
      "pects": 5066,
      "simpl": 5067,
      "test_train_with_augmented": 5068,
      "controls": 5069,
      "sensory": 5070,
      "scales": 5071,
      "Performance": 5072,
      "Precision": 5073,
      "mediately": 5074,
      "Consciously": 5075,
      "recognize": 5076,
      "prehension": 5077,
      "dependency": 5078,
      "corpus_": 5079,
      "interpretations": 5080,
      "anchored": 5081,
      "Mechanics": 5082,
      "joins": 5083,
      "pessim": 5084,
      "minimal": 5085,
      "journey": 5086,
      "comfortable": 5087,
      "(♋).": 5088,
      "explanation": 5089,
      "benef": 5090,
      "Financial": 5091,
      "Safety": 5092,
      "((": 5093,
      "Abs": 5094,
      "Go": 5095,
      "Govern": 5096,
      "LM": 5097,
      "MING": 5098,
      "Mark": 5099,
      "Sens": 5100,
      "ased": 5101,
      "mer": 5102,
      "mas": 5103,
      "name": 5104,
      "oplus": 5105,
      "sadness": 5106,
      "vival": 5107,
      "vibr": 5108,
      "ψ_C": 5109,
      "algorithm": 5110,
      "insights": 5111,
      "itor": 5112,
      "arise": 5113,
      "enter": 5114,
      "Require": 5115,
      "novel": 5116,
      "user": 5117,
      "Conflic": 5118,
      "--------------": 5119,
      "adjust": 5120,
      "shame": 5121,
      "Beliefs": 5122,
      "sci": 5123,
      "lose": 5124,
      "Neutral": 5125,
      "Open": 5126,
      "grid": 5127,
      "removing": 5128,
      "Any": 5129,
      "INE": 5130,
      "sometimes": 5131,
      "builds": 5132,
      "confirm": 5133,
      "Features": 5134,
      "ember": 5135,
      "|-------|--------": 5136,
      "leading": 5137,
      "solute": 5138,
      "organize": 5139,
      "TUAL": 5140,
      "anchor": 5141,
      "anchors": 5142,
      "optimal": 5143,
      "JSONL": 5144,
      "SUM": 5145,
      "labor": 5146,
      "Constraints": 5147,
      "MOTION": 5148,
      "properties": 5149,
      "opportunity": 5150,
      "rigor": 5151,
      "factors": 5152,
      "entirely": 5153,
      "Visualize": 5154,
      "ALLOWED_OP": 5155,
      "Increase": 5156,
      "academic": 5157,
      "ALLOWED_OPS": 5158,
      "ARE": 5159,
      "Bound": 5160,
      "Batch": 5161,
      "Business": 5162,
      "Date": 5163,
      "Evolution": 5164,
      "OM": 5165,
      "Root": 5166,
      "SY": 5167,
      "Targe": 5168,
      "[:,": 5169,
      "_state": 5170,
      "_dim": 5171,
      "bf": 5172,
      "cup": 5173,
      "dig": 5174,
      "diagram": 5175,
      "given": 5176,
      "oke": 5177,
      "var": 5178,
      "vari": 5179,
      "wire": 5180,
      "}:": 5181,
      "└──": 5182,
      "╬═══════": 5183,
      "replace": 5184,
      "ites": 5185,
      "itely": 5186,
      "idance": 5187,
      "stack": 5188,
      "sets": 5189,
      "secur": 5190,
      "aphysical": 5191,
      "team": 5192,
      "tinction": 5193,
      "Reg": 5194,
      "indows": 5195,
      "warning": 5196,
      "chron": 5197,
      "ploy": 5198,
      "Tri": 5199,
      "unconditional": 5200,
      "respect": 5201,
      "authen": 5202,
      "adv": 5203,
      "lost": 5204,
      "many": 5205,
      "Optional": 5206,
      "paration": 5207,
      "Stand": 5208,
      "weeks": 5209,
      "systematic": 5210,
      "specification": 5211,
      "contact": 5212,
      "Knows": 5213,
      "doctrine": 5214,
      "Clar": 5215,
      "Functions": 5216,
      "movement": 5217,
      "acquisitions": 5218,
      "MENTAL": 5219,
      "learned": 5220,
      "Fixed": 5221,
      "Weekly": 5222,
      "CONS": 5223,
      "helps": 5224,
      "Recognize": 5225,
      "sections": 5226,
      "sustainable": 5227,
      "Sequence": 5228,
      "container": 5229,
      "](#": 5230,
      "┼─────────────────┼─────────────────": 5231,
      "Progress": 5232,
      "Symptom": 5233,
      "Convergence": 5234,
      "diminishes": 5235,
      "MIND": 5236,
      "firot": 5237,
      "Temporal": 5238,
      "security": 5239,
      "authentic": 5240,
      "(-": 5241,
      "33": 5242,
      "Base": 5243,
      "Fl": 5244,
      "FAI": 5245,
      "Future": 5246,
      "Lack": 5247,
      "N3": 5248,
      "Non": 5249,
      "PE": 5250,
      "RA": 5251,
      "Vir": 5252,
      "_equation": 5253,
      "burn": 5254,
      "had": 5255,
      "jus": 5256,
      "oscill": 5257,
      "ras": 5258,
      "row": 5259,
      "rangle": 5260,
      "technique": 5261,
      "wipe": 5262,
      "└────────────────────────────────": 5263,
      "onest": 5264,
      "onding": 5265,
      "introduce": 5266,
      "atr": 5267,
      "reproduction": 5268,
      "itch": 5269,
      "demo": 5270,
      "decomposition": 5271,
      "perspec": 5272,
      "lean": 5273,
      "stati": 5274,
      "seen": 5275,
      "**(": 5276,
      "Think": 5277,
      "tering": 5278,
      "oll": 5279,
      "Intu": 5280,
      "Index": 5281,
      "Their": 5282,
      "abase": 5283,
      "Remo": 5284,
      "oder": 5285,
      "ames": 5286,
      "immediately": 5287,
      "covery": 5288,
      "ura": 5289,
      "Tran": 5290,
      "compu": 5291,
      "uces": 5292,
      "promotion": 5293,
      "Compassion": 5294,
      "Compute": 5295,
      "box": 5296,
      "Happening": 5297,
      "TIMING": 5298,
      "special": 5299,
      "trained": 5300,
      "valu": 5301,
      "override": 5302,
      "model_": 5303,
      "aving": 5304,
      "avings": 5305,
      "backward": 5306,
      "guidance": 5307,
      "paths": 5308,
      "regis": 5309,
      "Organ": 5310,
      "NOW": 5311,
      "angible": 5312,
      "Commit": 5313,
      "observation": 5314,
      "started": 5315,
      "Month": 5316,
      "transition": 5317,
      "bias": 5318,
      "speaking": 5319,
      "Recognizing": 5320,
      "abilities": 5321,
      "keeps": 5322,
      "destroy": 5323,
      "remains": 5324,
      "intuitive": 5325,
      "Minim": 5326,
      "public": 5327,
      "Metaphor": 5328,
      "influences": 5329,
      "studies": 5330,
      "Bodhi": 5331,
      "Navigating": 5332,
      "Moderate": 5333,
      "Audit": 5334,
      "Circuit": 5335,
      "scienti": 5336,
      "SUMMARY": 5337,
      "'],": 5338,
      "(♏": 5339,
      "(♐": 5340,
      "AX_": 5341,
      "CR": 5342,
      "Gate": 5343,
      "Kli": 5344,
      "Lim": 5345,
      "Right": 5346,
      "Sen": 5347,
      "coding": 5348,
      "dynamic": 5349,
      "g_": 5350,
      "mass": 5351,
      "say": 5352,
      "spirit": 5353,
      "taking": 5354,
      "vous": 5355,
      "vulnerability": 5356,
      "enh": 5357,
      "recur": 5358,
      "remain": 5359,
      "item": 5360,
      "itative": 5361,
      "leverage": 5362,
      "stood": 5363,
      "construct": 5364,
      "acceler": 5365,
      "icy": 5366,
      "cab": 5367,
      "Reproduction": 5368,
      "tivate": 5369,
      "chun": 5370,
      "exh": 5371,
      "pothesis": 5372,
      "unconscious": 5373,
      "Notes": 5374,
      "resil": 5375,
      "ressed": 5376,
      "ressive": 5377,
      "aust": 5378,
      "shar": 5379,
      "oph": 5380,
      "again": 5381,
      "science": 5382,
      "loo": 5383,
      "Missing": 5384,
      "diss": 5385,
      "distrib": 5386,
      "cri": 5387,
      "crucial": 5388,
      "subtle": 5389,
      "sonance": 5390,
      "amplitude": 5391,
      "completed": 5392,
      "Atum": 5393,
      "INING": 5394,
      "RES": 5395,
      "Leo": 5396,
      "whole": 5397,
      "Sefirot": 5398,
      "pathways": 5399,
      "producing": 5400,
      "regular": 5401,
      "understood": 5402,
      "Operating": 5403,
      "_d1": 5404,
      "separation": 5405,
      "center": 5406,
      "projects": 5407,
      "hides": 5408,
      "complexity": 5409,
      "receiving": 5410,
      "manipul": 5411,
      "explain": 5412,
      "integrated": 5413,
      "Axis": 5414,
      "III": 5415,
      "Processing": 5416,
      "limit": 5417,
      "label": 5418,
      "Constraint": 5419,
      "profession": 5420,
      "emerges": 5421,
      "Logic": 5422,
      "tells": 5423,
      "Updated": 5424,
      "FROM": 5425,
      "lightened": 5426,
      "immune": 5427,
      "Numb": 5428,
      "Framework": 5429,
      "seq_len": 5430,
      "challenges": 5431,
      "Consistent": 5432,
      "Maybe": 5433,
      "conversation": 5434,
      "investment": 5435,
      "Klipot": 5436,
      "42": 5437,
      "600": 5438,
      "AB": 5439,
      "Dynamic": 5440,
      "Ear": 5441,
      "Fₘ": 5442,
      "Freedom": 5443,
      "HT": 5444,
      "ITH": 5445,
      "ITY": 5446,
      "Joh": 5447,
      "LINE": 5448,
      "OW": 5449,
      "RC": 5450,
      "XX": 5451,
      "_k": 5452,
      "iod": 5453,
      "mach": 5454,
      "ply": 5455,
      "tree": 5456,
      "wise": 5457,
      "∅^": 5458,
      "intimacy": 5459,
      "ery": 5460,
      "attered": 5461,
      "ouse": 5462,
      "ised": 5463,
      "deca": 5464,
      "seed": 5465,
      "Validate": 5466,
      "offer": 5467,
      "impression": 5468,
      "exposed": 5469,
      "poss": 5470,
      "conceptual": 5471,
      "sugges": 5472,
      "scan": 5473,
      "WorldInv": 5474,
      "losing": 5475,
      "notes": 5476,
      "mentally": 5477,
      "Stable": 5478,
      "flip": 5479,
      "herence": 5480,
      "vide": 5481,
      "subjective": 5482,
      "substance": 5483,
      "relig": 5484,
      "interact": 5485,
      "periority": 5486,
      "oretical": 5487,
      "intensified": 5488,
      "intellect": 5489,
      "conflicting": 5490,
      "temperature": 5491,
      "books": 5492,
      "magic": 5493,
      "Begin": 5494,
      "Distribution": 5495,
      "CES": 5496,
      "Crisis": 5497,
      "scaling": 5498,
      "deeply": 5499,
      "Period": 5500,
      "Domin": 5501,
      "environmental": 5502,
      "Causation": 5503,
      "APP": 5504,
      "Protocols": 5505,
      "Objec": 5506,
      "survival": 5507,
      "synthesis": 5508,
      "wanted": 5509,
      "involve": 5510,
      "strongly": 5511,
      "methodology": 5512,
      "acceptable": 5513,
      "integrity": 5514,
      "markers": 5515,
      "Diagnose": 5516,
      "questions": 5517,
      "prior": 5518,
      "identifying": 5519,
      "important": 5520,
      "showing": 5521,
      "communic": 5522,
      "constructive": 5523,
      "messages": 5524,
      "publish": 5525,
      "visible": 5526,
      "particip": 5527,
      "family": 5528,
      "alternative": 5529,
      "Analyze": 5530,
      "stimulus": 5531,
      "watching": 5532,
      "Warning": 5533,
      "circulates": 5534,
      "_mvr_v1": 5535,
      "Release": 5536,
      "database": 5537,
      "Chaos": 5538,
      "Manipulation": 5539,
      "deserve": 5540,
      "Standard": 5541,
      "John": 5542,
      ")\"": 5543,
      "77": 5544,
      "Avoid": 5545,
      "DU": 5546,
      "Down": 5547,
      "EMOTION": 5548,
      "Follow": 5549,
      "ITUAL": 5550,
      "N2": 5551,
      "Pass": 5552,
      "Take": 5553,
      "YSI": 5554,
      "cy": 5555,
      "cou": 5556,
      "ctional": 5557,
      "fire": 5558,
      "female": 5559,
      "gnosis": 5560,
      "held": 5561,
      "large": 5562,
      "otic": 5563,
      "sound": 5564,
      "vable": 5565,
      "}}": 5566,
      "₄:": 5567,
      "infin": 5568,
      "income": 5569,
      "ert": 5570,
      "enting": 5571,
      "itory": 5572,
      "deple": 5573,
      "decl": 5574,
      "stage": 5575,
      "toler": 5576,
      "trinal": 5577,
      "warm": 5578,
      "Tracking": 5579,
      "friend": 5580,
      "ucing": 5581,
      "pleasure": 5582,
      "adow": 5583,
      "agree": 5584,
      "Poor": 5585,
      "prove": 5586,
      "creativity": 5587,
      "parts": 5588,
      "discover": 5589,
      "delity": 5590,
      "ustom": 5591,
      "grief": 5592,
      "pytest": 5593,
      "driving": 5594,
      "obstacles": 5595,
      "fulfill": 5596,
      "amplification": 5597,
      "ions": 5598,
      "atitu": 5599,
      "myth": 5600,
      "guided": 5601,
      "Completion": 5602,
      "──────┐": 5603,
      "Assess": 5604,
      "partners": 5605,
      "Beast": 5606,
      "typically": 5607,
      "approval": 5608,
      "Arithmetic": 5609,
      "repeat": 5610,
      "plications": 5611,
      "perstitions": 5612,
      "Clarity": 5613,
      "|---------|-------": 5614,
      "returns": 5615,
      "strategic": 5616,
      "observe": 5617,
      "continuation": 5618,
      "breakdown": 5619,
      "increases": 5620,
      "teacher_outputs": 5621,
      "Breaking": 5622,
      "ancient": 5623,
      "Strategy": 5624,
      "ivalent": 5625,
      "ivalence": 5626,
      "himself": 5627,
      "Launch": 5628,
      "grounding": 5629,
      "visualization": 5630,
      "Execute": 5631,
      "Sequential": 5632,
      "IRITUAL": 5633,
      "claims": 5634,
      "SPIRITUAL": 5635,
      "PHYSI": 5636,
      "longer": 5637,
      "seems": 5638,
      "indicates": 5639,
      "drama": 5640,
      "Differ": 5641,
      "succeed": 5642,
      "qualities": 5643,
      "╬═══════╬═══════": 5644,
      "EMOTIONAL": 5645,
      "PHYSICAL": 5646,
      "44": 5647,
      "Could": 5648,
      "EL": 5649,
      "E_": 5650,
      "STR": 5651,
      "_rate": 5652,
      "cues": 5653,
      "damp": 5654,
      "fig": 5655,
      "fur": 5656,
      "mw": 5657,
      "ps": 5658,
      "└────────": 5659,
      "init": 5660,
      "infinite": 5661,
      "enthusiasm": 5662,
      "repair": 5663,
      "asc": 5664,
      "ecking": 5665,
      "icul": 5666,
      "inev": 5667,
      "Receptive": 5668,
      "compan": 5669,
      "Expect": 5670,
      "aug_": 5671,
      "shows": 5672,
      "opposition": 5673,
      "from_": 5674,
      "agn": 5675,
      "Points": 5676,
      "netism": 5677,
      "local": 5678,
      "haus": 5679,
      "board": 5680,
      "dissol": 5681,
      "corpor": 5682,
      "Subscript": 5683,
      "became": 5684,
      "removed": 5685,
      "Translation": 5686,
      "ANT": 5687,
      "manifestations": 5688,
      "tracting": 5689,
      "TEN": 5690,
      "medical": 5691,
      "...}": 5692,
      "Intelligence": 5693,
      "Blocks": 5694,
      "Disassociation": 5695,
      "vibrational": 5696,
      "behavioral": 5697,
      "developing": 5698,
      "initiated": 5699,
      "Commun": 5700,
      "sustaining": 5701,
      "compact": 5702,
      "produced": 5703,
      "optimization": 5704,
      "diagnostics": 5705,
      "Something": 5706,
      "transcend": 5707,
      "depends": 5708,
      "Formalization": 5709,
      "targeted": 5710,
      "eigenstate": 5711,
      "much": 5712,
      "destructive": 5713,
      "Approx": 5714,
      "journal": 5715,
      "OPERATIONS": 5716,
      "perceived": 5717,
      "particular": 5718,
      "MANUAL": 5719,
      "literally": 5720,
      "alogue": 5721,
      "attenuates": 5722,
      "debug": 5723,
      "implemented": 5724,
      "maintaining": 5725,
      "Repeat": 5726,
      "style": 5727,
      "parameters": 5728,
      "judgment": 5729,
      "embodied": 5730,
      "Ethical": 5731,
      "visor": 5732,
      "exhaust": 5733,
      "\"):": 5734,
      "-,": 5735,
      "200": 5736,
      "Aff": 5737,
      "CAN": 5738,
      "Duration": 5739,
      "GA": 5740,
      "IV": 5741,
      "Lacks": 5742,
      "Mari": 5743,
      "Marc": 5744,
      "N8": 5745,
      "N9": 5746,
      "Other": 5747,
      "Oscill": 5748,
      "Pol": 5749,
      "Past": 5750,
      "Pair": 5751,
      "Techn": 5752,
      "Vulnerability": 5753,
      "W5": 5754,
      "]\"": 5755,
      "_weights": 5756,
      "`+": 5757,
      "cat": 5758,
      "die": 5759,
      "food": 5760,
      "got": 5761,
      "hor": 5762,
      "haps": 5763,
      "iel": 5764,
      "ken": 5765,
      "pay": 5766,
      "sources": 5767,
      "tk": 5768,
      "touch": 5769,
      "wish": 5770,
      "ons": 5771,
      "onto": 5772,
      "alled": 5773,
      "insufficient": 5774,
      "orn": 5775,
      "ational": 5776,
      "review": 5777,
      "itoring": 5778,
      "ardr": 5779,
      "death": 5780,
      "idden": 5781,
      "stabil": 5782,
      "──[": 5783,
      "atever": 5784,
      "Dep": 5785,
      "absolute": 5786,
      "langle": 5787,
      "Enti": 5788,
      "emon": 5789,
      "Expl": 5790,
      "agents": 5791,
      "neur": 5792,
      "ElementRef": 5793,
      "financial": 5794,
      "ports": 5795,
      "crash": 5796,
      "electr": 5797,
      "TIONS": 5798,
      "histic": 5799,
      "goti": 5800,
      "sively": 5801,
      "osen": 5802,
      "Structured": 5803,
      "Confirmation": 5804,
      "counts": 5805,
      "iteria": 5806,
      "environments": 5807,
      "Specification": 5808,
      "Class": 5809,
      "psychology": 5810,
      "observing": 5811,
      "continues": 5812,
      "BLOCKED": 5813,
      "Doctrine": 5814,
      "suffix": 5815,
      "suffering": 5816,
      "biological": 5817,
      "nl_bridge": 5818,
      "accurately": 5819,
      "retro": 5820,
      "max_": 5821,
      "eigenvalues": 5822,
      "Signature": 5823,
      "numbers": 5824,
      "cedure": 5825,
      "invert": 5826,
      "Inverted": 5827,
      "Direct": 5828,
      "reliably": 5829,
      "INTS": 5830,
      "Finding": 5831,
      "mutation": 5832,
      "PHASE": 5833,
      "childhood": 5834,
      "history": 5835,
      "vocab": 5836,
      "Embed": 5837,
      "propagation": 5838,
      "AGENT": 5839,
      "applications": 5840,
      "parse_equation": 5841,
      "README": 5842,
      "perspective": 5843,
      "valuable": 5844,
      "DURATION": 5845,
      "iculum": 5846,
      "Maria": 5847,
      "Marcus": 5848,
      "%+": 5849,
      "AM": 5850,
      "Dav": 5851,
      "Danger": 5852,
      "Easter": 5853,
      "Just": 5854,
      "KB": 5855,
      "ROR": 5856,
      "W2": 5857,
      "`-": 5858,
      "big": 5859,
      "cud": 5860,
      "dating": 5861,
      "htt": 5862,
      "hierarch": 5863,
      "house": 5864,
      "loc": 5865,
      "lock": 5866,
      "pn": 5867,
      "v4": 5868,
      "{'": 5869,
      "}[": 5870,
      "₂)": 5871,
      "alive": 5872,
      "inside": 5873,
      "sib": 5874,
      "reactive": 5875,
      "least": 5876,
      "conom": 5877,
      "acred": 5878,
      "uly": 5879,
      "iff": 5880,
      "tenance": 5881,
      "popul": 5882,
      "mble": 5883,
      "Trace": 5884,
      "A22": 5885,
      "frag": 5886,
      "Existing": 5887,
      "usage": 5888,
      "opy": 5889,
      "Working": 5890,
      "Post": 5891,
      "requiring": 5892,
      "Star": 5893,
      "States": 5894,
      "spectral": 5895,
      "standards": 5896,
      "ferences": 5897,
      "subject": 5898,
      "manifested": 5899,
      "modeling": 5900,
      "identified": 5901,
      "identification": 5902,
      "forced": 5903,
      "AcquisitionInv": 5904,
      "brings": 5905,
      "serious": 5906,
      "Math": 5907,
      "Leg": 5908,
      "TEST": 5909,
      "general": 5910,
      "diction": 5911,
      "miss": 5912,
      "ze_augmented": 5913,
      "runs": 5914,
      "circle": 5915,
      "Critique": 5916,
      "_d7": 5917,
      "Confusion": 5918,
      "requirements": 5919,
      "organizing": 5920,
      "angular": 5921,
      "avoiding": 5922,
      "English": 5923,
      "detect": 5924,
      "combination": 5925,
      "analytical": 5926,
      "module": 5927,
      "achieved": 5928,
      "letter": 5929,
      "adequ": 5930,
      "troduction": 5931,
      "badge": 5932,
      "Matters": 5933,
      "intentions": 5934,
      "profound": 5935,
      "speak": 5936,
      "FORMAL": 5937,
      "Corre": 5938,
      "mechanisms": 5939,
      "Maintain": 5940,
      "ptoms": 5941,
      "ambigu": 5942,
      "Execution": 5943,
      "pursu": 5944,
      "Profile": 5945,
      "Update": 5946,
      "num_": 5947,
      "Passed": 5948,
      "Environmental": 5949,
      "Properties": 5950,
      "contrastive": 5951,
      "channels": 5952,
      "sanitize_augmented": 5953,
      "sample_augmented": 5954,
      "institutional": 5955,
      "POSITIVE": 5956,
      "flawed": 5957,
      "trajectory": 5958,
      "rastination": 5959,
      "tolerance": 5960,
      "further": 5961,
      "Communication": 5962,
      "David": 5963,
      "Eastern": 5964,
      "\"}": 5965,
      "(\\": 5966,
      ":*": 5967,
      "Functor": 5968,
      "Hour": 5969,
      "Jacks": 5970,
      "Location": 5971,
      "NU": 5972,
      "Pop": 5973,
      "RH": 5974,
      "W3": 5975,
      "YTH": 5976,
      "`(": 5977,
      "blue": 5978,
      "fav": 5979,
      "lif": 5980,
      "minds": 5981,
      "tangible": 5982,
      "xious": 5983,
      "└────────────────": 5984,
      "alsi": 5985,
      "outer": 5986,
      "itfalls": 5987,
      "ars": 5988,
      "thetic": 5989,
      "devi": 5990,
      "lete": 5991,
      "idire": 5992,
      "seven": 5993,
      "conclu": 5994,
      "contrib": 5995,
      "concern": 5996,
      "Validity": 5997,
      "trial": 5998,
      "truly": 5999,
      "piration": 6000,
      "Refine": 6001,
      "happening": 6002,
      "chosen": 6003,
      "coach": 6004,
      "urs": 6005,
      "urgency": 6006,
      "plied": 6007,
      "textbf": 6008,
      "resolution": 6009,
      "strug": 6010,
      "Reson": 6011,
      "Resolution": 6012,
      "share": 6013,
      "ophistic": 6014,
      "negoti": 6015,
      "metric": 6016,
      "Moon": 6017,
      "lobal": 6018,
      "Accumul": 6019,
      "parser": 6020,
      "dissonance": 6021,
      "Stack": 6022,
      "gry": 6023,
      "fidelity": 6024,
      "interpre": 6025,
      "obvious": 6026,
      "overlap": 6027,
      "model_mvr_v1": 6028,
      "useful": 6029,
      "derived": 6030,
      "serving": 6031,
      "minded": 6032,
      "golem": 6033,
      "connects": 6034,
      "operator_": 6035,
      "effectiveness": 6036,
      "skip": 6037,
      "training_": 6038,
      "transformer": 6039,
      "controlled": 6040,
      "sensus": 6041,
      "completely": 6042,
      "presentation": 6043,
      "Report": 6044,
      "|------|----------------": 6045,
      "predict": 6046,
      "APTER": 6047,
      "_v4": 6048,
      "END": 6049,
      "MATHE": 6050,
      "integrating": 6051,
      "partnership": 6052,
      "teacher_model_mvr_v1": 6053,
      "matching": 6054,
      "triangular": 6055,
      "targeting": 6056,
      "sympathy": 6057,
      "accumulated": 6058,
      "STEM": 6059,
      "Approximately": 6060,
      "facing": 6061,
      "competi": 6062,
      "competence": 6063,
      "difficulty": 6064,
      "(♊).": 6065,
      "Superscript": 6066,
      "Psychology": 6067,
      "Culture": 6068,
      "reduced": 6069,
      "Preservation": 6070,
      "sales": 6071,
      "Provides": 6072,
      "Effects": 6073,
      "FULL": 6074,
      "harmony": 6075,
      "150k": 6076,
      "triplet": 6077,
      "TIMELINE": 6078,
      "Governs": 6079,
      "SYSTEM": 6080,
      "CONSTRA": 6081,
      "Monthly": 6082,
      "resilience": 6083,
      "STRU": 6084,
      "ardrails": 6085,
      "Embedding": 6086,
      "idirectional": 6087,
      "MATHEMA": 6088,
      "(⊕": 6089,
      ",...,": 6090,
      "9_": 6091,
      "://": 6092,
      "B_": 6093,
      "CD": 6094,
      "Ed": 6095,
      "Evidence": 6096,
      "Imag": 6097,
      "Jup": 6098,
      "Link": 6099,
      "N4": 6100,
      "Nat": 6101,
      "PL": 6102,
      "PT": 6103,
      "Pick": 6104,
      "Rig": 6105,
      "Ritual": 6106,
      "Sch": 6107,
      "Tables": 6108,
      "Technique": 6109,
      "Void": 6110,
      "\\}$$": 6111,
      "_train": 6112,
      "athing": 6113,
      "bud": 6114,
      "bond": 6115,
      "cod": 6116,
      "ets": 6117,
      "flex": 6118,
      "heal": 6119,
      "null": 6120,
      "sophistic": 6121,
      "tec": 6122,
      "tue": 6123,
      "water": 6124,
      "wake": 6125,
      "₃,": 6126,
      "onom": 6127,
      "alpha": 6128,
      "infer": 6129,
      "reci": 6130,
      "isely": 6131,
      "mother": 6132,
      "sever": 6133,
      "conds": 6134,
      "consent": 6135,
      "assump": 6136,
      "aspects": 6137,
      "pirical": 6138,
      "edge": 6139,
      "prepare": 6140,
      "epticism": 6141,
      "emer": 6142,
      "ieval": 6143,
      "extraction": 6144,
      "expanded": 6145,
      "plit": 6146,
      "fron": 6147,
      "meeting": 6148,
      "Forward": 6149,
      "Access": 6150,
      "matic": 6151,
      "Never": 6152,
      "Neur": 6153,
      "partial": 6154,
      "undance": 6155,
      "vessel": 6156,
      "timeline": 6157,
      "Examine": 6158,
      "room": 6159,
      "keting": 6160,
      "arri": 6161,
      "overy": 6162,
      "Anxiety": 6163,
      "Adaptation": 6164,
      "stile": 6165,
      "nervous": 6166,
      "lects": 6167,
      "generating": 6168,
      "|-------------|": 6169,
      "ARCH": 6170,
      "capture": 6171,
      "Seven": 6172,
      "balanced": 6173,
      "reads": 6174,
      "activated": 6175,
      "Black": 6176,
      "istics": 6177,
      "Recovery": 6178,
      "names": 6179,
      "Overwhel": 6180,
      "Grid": 6181,
      "materials": 6182,
      "Decode": 6183,
      "media": 6184,
      "toolkit": 6185,
      "General": 6186,
      "PRI": 6187,
      "modification": 6188,
      "including": 6189,
      "chaotic": 6190,
      "weakness": 6191,
      "TRAINING": 6192,
      "───┬": 6193,
      "chapters": 6194,
      "affection": 6195,
      "MODE": 6196,
      "symptoms": 6197,
      "repels": 6198,
      "final_model": 6199,
      "CounterPole": 6200,
      "cedence": 6201,
      "Development": 6202,
      "legi": 6203,
      "clean": 6204,
      "waves": 6205,
      "Selection": 6206,
      "Environment": 6207,
      "energies": 6208,
      "political": 6209,
      "technology": 6210,
      "determines": 6211,
      "invalid_": 6212,
      "Compatible": 6213,
      "Include": 6214,
      "frastructure": 6215,
      "_augmented_data": 6216,
      "absence": 6217,
      "training_metrics_": 6218,
      "Backward": 6219,
      "instruction": 6220,
      "exhausted": 6221,
      "cuda": 6222,
      "CONSTRAINTS": 6223,
      "Jupiter": 6224,
      "\").": 6225,
      "72": 6226,
      "99": 6227,
      "?).": 6228,
      "Bonding": 6229,
      "Dict": 6230,
      "Have": 6231,
      "Look": 6232,
      "Match": 6233,
      "Pₙ": 6234,
      "VM": 6235,
      "WANT": 6236,
      "_loss": 6237,
      "_API": 6238,
      "bir": 6239,
      "band": 6240,
      "cu": 6241,
      "ease": 6242,
      "fol": 6243,
      "frequ": 6244,
      "hur": 6245,
      "home": 6246,
      "iant": 6247,
      "lies": 6248,
      "oded": 6249,
      "tag": 6250,
      "uting": 6251,
      "wid": 6252,
      "zed": 6253,
      "{(": 6254,
      "}$": 6255,
      "♊):": 6256,
      "tified": 6257,
      "inves": 6258,
      "ended": 6259,
      "orch": 6260,
      "angry": 6261,
      "recurr": 6262,
      "device": 6263,
      "perhaps": 6264,
      "sters": 6265,
      "moil": 6266,
      "mogram": 6267,
      "cons": 6268,
      "assign": 6269,
      "accep": 6270,
      "acces": 6271,
      "prints": 6272,
      "ulsion": 6273,
      "eliness": 6274,
      "elong": 6275,
      "Remove": 6276,
      "covers": 6277,
      "urre": 6278,
      "node": 6279,
      "novation": 6280,
      "Exp": 6281,
      "ured": 6282,
      "stral": 6283,
      "encounter": 6284,
      "─────────": 6285,
      "actionable": 6286,
      "proceed": 6287,
      "spar": 6288,
      "worldview": 6289,
      "Altern": 6290,
      "Align": 6291,
      "Changes": 6292,
      "Superiority": 6293,
      "parad": 6294,
      "attrib": 6295,
      "distinct": 6296,
      "associating": 6297,
      "spiritually": 6298,
      "interface": 6299,
      "ERROR": 6300,
      "Strict": 6301,
      "Adv": 6302,
      "engagement": 6303,
      "sticism": 6304,
      "responds": 6305,
      "tracted": 6306,
      "Project": 6307,
      "seeks": 6308,
      "|------------|": 6309,
      "misalignment": 6310,
      "Behavior": 6311,
      "phr": 6312,
      "validation_": 6313,
      "batches": 6314,
      "metaphysical": 6315,
      "functioning": 6316,
      "installed": 6317,
      "Repl": 6318,
      "Repeti": 6319,
      "initiation": 6320,
      "Special": 6321,
      "evalu": 6322,
      "sourced": 6323,
      "PRINT": 6324,
      "humans": 6325,
      "------------------------------------------------": 6326,
      "boundary": 6327,
      "shapes": 6328,
      "purely": 6329,
      "generate_augmented_data": 6330,
      "labels": 6331,
      "CHAPTER": 6332,
      "Categories": 6333,
      "Instead": 6334,
      "ethics": 6335,
      "swings": 6336,
      "repeatedly": 6337,
      "Invert": 6338,
      "Components": 6339,
      "════════════════════════════════════════════════════════════════": 6340,
      "message": 6341,
      "perfection": 6342,
      "multiplied": 6343,
      "perceive": 6344,
      "deliberate": 6345,
      "mutual": 6346,
      "treatment": 6347,
      "384": 6348,
      "Property": 6349,
      "lightenment": 6350,
      "updated": 6351,
      "Saturn": 6352,
      "Security": 6353,
      "ysfunction": 6354,
      "argument": 6355,
      "KEY": 6356,
      "Memory": 6357,
      "easily": 6358,
      "FEMALE": 6359,
      "rpm_": 6360,
      "Small": 6361,
      "Sensible": 6362,
      "professional": 6363,
      "aug_type": 6364,
      "dissolves": 6365,
      "RHYTH": 6366,
      "Resonance": 6367,
      "PRIMARY": 6368,
      "RHYTHM": 6369,
      "\";": 6370,
      "'.": 6371,
      ")}$$": 6372,
      "Average": 6373,
      "Bal": 6374,
      "BRATION": 6375,
      "Cul": 6376,
      "Day": 6377,
      "Fu": 6378,
      "Hidden": 6379,
      "Iter": 6380,
      "Less": 6381,
      "N6": 6382,
      "P_": 6383,
      "W6": 6384,
      "_signature": 6385,
      "gy": 6386,
      "god": 6387,
      "gree": 6388,
      "male": 6389,
      "ned": 6390,
      "rage": 6391,
      "v6": 6392,
      "inc": 6393,
      "incomplete": 6394,
      "enomen": 6395,
      "ante": 6396,
      "itten": 6397,
      "arante": 6398,
      "seconds": 6399,
      "contrad": 6400,
      "While": 6401,
      "Int": 6402,
      "Introduce": 6403,
      "troubleshooting": 6404,
      "Determin": 6405,
      "appears": 6406,
      "Rejection": 6407,
      "aken": 6408,
      "tivities": 6409,
      "1000": 6410,
      "Planning": 6411,
      "verify": 6412,
      "post": 6413,
      "noise": 6414,
      "places": 6415,
      "usually": 6416,
      "unknown": 6417,
      "Noticing": 6418,
      "restor": 6419,
      "ader": 6420,
      "opposite": 6421,
      "scr": 6422,
      "beau": 6423,
      "estamp": 6424,
      "ached": 6425,
      "Chang": 6426,
      "finish": 6427,
      "disconnected": 6428,
      "disrup": 6429,
      "Stud": 6430,
      "correlation": 6431,
      "descent": 6432,
      "grade": 6433,
      "endor": 6434,
      "interconnected": 6435,
      "elevation": 6436,
      "full_": 6437,
      "amplify": 6438,
      "120": 6439,
      "foundational": 6440,
      "suppression": 6441,
      "SECON": 6442,
      "serves": 6443,
      "myster": 6444,
      "goes": 6445,
      "versus": 6446,
      "...]": 6447,
      "Creating": 6448,
      "commands": 6449,
      "python3": 6450,
      "log_": 6451,
      "Testability": 6452,
      "Timeline": 6453,
      "phenomen": 6454,
      "Persist": 6455,
      "Repair": 6456,
      "prediction": 6457,
      "Classi": 6458,
      "Claude": 6459,
      "Object": 6460,
      "occurr": 6461,
      "Monad": 6462,
      "Relationships": 6463,
      "duals": 6464,
      "nl_retriever": 6465,
      "harm": 6466,
      "Matter": 6467,
      "significantly": 6468,
      "availability": 6469,
      "Needs": 6470,
      "mirrors": 6471,
      "legal": 6472,
      "VIBRATION": 6473,
      "reinforcement": 6474,
      "visibility": 6475,
      "attempts": 6476,
      "defines": 6477,
      "Compatibility": 6478,
      "Term": 6479,
      "roundtrip": 6480,
      "territory": 6481,
      "zero": 6482,
      "frustration": 6483,
      "suddenly": 6484,
      "ITECTURE": 6485,
      "physics": 6486,
      "ratio": 6487,
      "scientific": 6488,
      "Number": 6489,
      "infinitely": 6490,
      "CANON": 6491,
      "conclusions": 6492,
      "MATHEMATICAL": 6493,
      "sophisticated": 6494,
      "emerge": 6495,
      "ARCHITECTURE": 6496,
      "SECOND": 6497,
      "++": 6498,
      "+,": 6499,
      "05": 6500,
      "34": 6501,
      "35": 6502,
      "Diagram": 6503,
      "Fam": 6504,
      "Fall": 6505,
      "GU": 6506,
      "Har": 6507,
      "Help": 6508,
      "ICAL": 6509,
      "KEN": 6510,
      "LY": 6511,
      "Sleep": 6512,
      "Scope": 6513,
      "Windows": 6514,
      "WITH": 6515,
      "Year": 6516,
      "].": 6517,
      "aves": 6518,
      "aura": 6519,
      "cut": 6520,
      "centr": 6521,
      "dance": 6522,
      "dream": 6523,
      "eyes": 6524,
      "fight": 6525,
      "fuck": 6526,
      "freedom": 6527,
      "gap": 6528,
      "gins": 6529,
      "gather": 6530,
      "honest": 6531,
      "ike": 6532,
      "oception": 6533,
      "tures": 6534,
      "womb": 6535,
      "online": 6536,
      "intr": 6537,
      "eric": 6538,
      "enn": 6539,
      "atom": 6540,
      "orient": 6541,
      "ret": 6542,
      "recor": 6543,
      "iday": 6544,
      "ently": 6545,
      "select": 6546,
      "Though": 6547,
      "contempl": 6548,
      "essential": 6549,
      "ulas": 6550,
      "__init": 6551,
      "whatever": 6552,
      "ifer": 6553,
      "Rece": 6554,
      "culine": 6555,
      "amount": 6556,
      "impossible": 6557,
      "checks": 6558,
      "exhaus": 6559,
      "comprehension": 6560,
      "Expanded": 6561,
      "Consider": 6562,
      "Novel": 6563,
      "adap": 6564,
      "Pri": 6565,
      "illiant": 6566,
      "arely": 6567,
      "ElementInv": 6568,
      "Accur": 6569,
      "Acceler": 6570,
      "entities": 6571,
      "disse": 6572,
      "paper": 6573,
      "removal": 6574,
      "overning": 6575,
      "Friday": 6576,
      "fulness": 6577,
      "atastr": 6578,
      "causality": 6579,
      "echo": 6580,
      "forcement": 6581,
      "containing": 6582,
      "METR": 6583,
      "brilliant": 6584,
      "connecting": 6585,
      "versal": 6586,
      "Left": 6587,
      "guides": 6588,
      "turning": 6589,
      "focusing": 6590,
      "fast": 6591,
      "logging": 6592,
      "pathway": 6593,
      "ardless": 6594,
      "───────┬": 6595,
      "trainer": 6596,
      "marketing": 6597,
      "shifting": 6598,
      "Applying": 6599,
      "Americ": 6600,
      "arcity": 6601,
      "MADE": 6602,
      "transi": 6603,
      "Mastering": 6604,
      "Dataset": 6605,
      "provided": 6606,
      "Auto": 6607,
      "reinforcing": 6608,
      "preserves": 6609,
      "closed": 6610,
      "archetypes": 6611,
      "Medium": 6612,
      "playing": 6613,
      "ATOR": 6614,
      "Draw": 6615,
      "dogma": 6616,
      "Person": 6617,
      "gradually": 6618,
      "Passion": 6619,
      "attempt": 6620,
      "persistence": 6621,
      "Configuration": 6622,
      "breathing": 6623,
      "governs": 6624,
      "templates": 6625,
      "Evening": 6626,
      "Acceptable": 6627,
      "Cultural": 6628,
      "Returns": 6629,
      "absorb": 6630,
      "Character": 6631,
      "risk": 6632,
      "demands": 6633,
      "|--------------|": 6634,
      "dwp_scores": 6635,
      "elimin": 6636,
      "Conflict": 6637,
      "rigorous": 6638,
      "Boundary": 6639,
      "Dominant": 6640,
      "Assessment": 6641,
      "|---------|-------|----------|": 6642,
      "png": 6643,
      "deviation": 6644,
      "Accumulated": 6645,
      "Natural": 6646,
      "width": 6647,
      "recurring": 6648,
      "--------------------------------------------------------------": 6649,
      "Thoughts": 6650,
      "__init__": 6651,
      "\"[": 6652,
      "46": 6653,
      "49": 6654,
      "88": 6655,
      "AVE": 6656,
      "Bad": 6657,
      "Ev": 6658,
      "F_m": 6659,
      "LA": 6660,
      "Lis": 6661,
      "Mic": 6662,
      "MAR": 6663,
      "Maint": 6664,
      "Off": 6665,
      "STA": 6666,
      "Spirit": 6667,
      "XT": 6668,
      "`*": 6669,
      "ai": 6670,
      "aver": 6671,
      "average": 6672,
      "econom": 6673,
      "gaps": 6674,
      "iable": 6675,
      "land": 6676,
      "mus": 6677,
      "metic": 6678,
      "mist": 6679,
      "penal": 6680,
      "sounds": 6681,
      "tw": 6682,
      "utive": 6683,
      "₀)": 6684,
      "₃:": 6685,
      "onger": 6686,
      "alg": 6687,
      "alogy": 6688,
      "inative": 6689,
      "essions": 6690,
      "ana": 6691,
      "anxious": 6692,
      "reception": 6693,
      "arm": 6694,
      "delete": 6695,
      "persu": 6696,
      "stored": 6697,
      "forty": 6698,
      "sees": 6699,
      "Thurs": 6700,
      "consensus": 6701,
      "quiring": 6702,
      "preparation": 6703,
      "Reve": 6704,
      "empower": 6705,
      "verty": 6706,
      "poe": 6707,
      "Trauma": 6708,
      "frak": 6709,
      "uscript": 6710,
      "unsatisfied": 6711,
      "encodes": 6712,
      "begins": 6713,
      "areas": 6714,
      "Forms": 6715,
      "Formation": 6716,
      "maximum": 6717,
      "|--------|": 6718,
      "acknow": 6719,
      "parsing": 6720,
      "dedic": 6721,
      "possib": 6722,
      "distur": 6723,
      "discern": 6724,
      "ONE": 6725,
      "flash": 6726,
      "cry": 6727,
      "subscript": 6728,
      "001": 6729,
      "tested": 6730,
      "transmission": 6731,
      "planetary": 6732,
      "ALL": 6733,
      "completes": 6734,
      "oton": 6735,
      "confirmation": 6736,
      "Identification": 6737,
      "Associativity": 6738,
      "fractal_": 6739,
      "Under": 6740,
      "Understand": 6741,
      "activities": 6742,
      "Recom": 6743,
      "typed": 6744,
      "willing": 6745,
      "leadership": 6746,
      "experienced": 6747,
      "providing": 6748,
      "_d3": 6749,
      "mathfrak": 6750,
      "Parse": 6751,
      "applies": 6752,
      "Decoded": 6753,
      "TOKEN": 6754,
      "filters": 6755,
      "Controls": 6756,
      "Command": 6757,
      "Setting": 6758,
      "Months": 6759,
      "morphis": 6760,
      "limited": 6761,
      "Construction": 6762,
      "anti_attractor_": 6763,
      "intentional": 6764,
      "prevent": 6765,
      "addressing": 6766,
      "involving": 6767,
      "|---------------|": 6768,
      "Directed": 6769,
      "encoded": 6770,
      "Installation": 6771,
      "Enhanced": 6772,
      "delivery": 6773,
      "Dependency": 6774,
      "Dependencies": 6775,
      "Retriever": 6776,
      "compute_": 6777,
      "authorities": 6778,
      "MUST": 6779,
      "Teaching": 6780,
      "restructuring": 6781,
      "Ignoring": 6782,
      "sensitivities": 6783,
      "Practitioners": 6784,
      "warmth": 6785,
      "atitude": 6786,
      "dampens": 6787,
      "inevitable": 6788,
      "Affinity": 6789,
      "tecode": 6790,
      "onomy": 6791,
      "assumptions": 6792,
      "cuts": 6793,
      "Repetition": 6794,
      "Thursday": 6795,
      "48": 6796,
      "BT": 6797,
      "Dₙ": 6798,
      "Doubt": 6799,
      "Face": 6800,
      "Factor": 6801,
      "Gemini": 6802,
      "LT": 6803,
      "L_": 6804,
      "Lines": 6805,
      "Must": 6806,
      "PER": 6807,
      "Show": 6808,
      "Ten": 6809,
      "^^": 6810,
      "_corpus": 6811,
      "`[": 6812,
      "`->": 6813,
      "afra": 6814,
      "bu": 6815,
      "cand": 6816,
      "da": 6817,
      "diag": 6818,
      "eedback": 6819,
      "falsi": 6820,
      "giving": 6821,
      "k_": 6822,
      "kₙ": 6823,
      "lib": 6824,
      "rap": 6825,
      "rule": 6826,
      "render": 6827,
      "scope": 6828,
      "uish": 6829,
      "uplic": 6830,
      "zy": 6831,
      "}).": 6832,
      "φ_": 6833,
      "₁(": 6834,
      "₁)": 6835,
      "₇,": 6836,
      "♓)": 6837,
      "alf": 6838,
      "aling": 6839,
      "ann": 6840,
      "anity": 6841,
      "six": 6842,
      "itness": 6843,
      "arises": 6844,
      "degree": 6845,
      "store": 6846,
      "omain": 6847,
      "asting": 6848,
      "quit": 6849,
      "trition": 6850,
      "trapped": 6851,
      "ofeedback": 6852,
      "Det": 6853,
      "ght": 6854,
      "ilation": 6855,
      "withdraw": 6856,
      "emit": 6857,
      "embody": 6858,
      "ensure": 6859,
      "tinguish": 6860,
      "ucation": 6861,
      "Exc": 6862,
      "unresolved": 6863,
      "stronger": 6864,
      "presenting": 6865,
      "promo": 6866,
      "Move": 6867,
      "forming": 6868,
      "ancements": 6869,
      "entity": 6870,
      "omantic": 6871,
      "bott": 6872,
      "|------------------------": 6873,
      "bypass": 6874,
      "discourse": 6875,
      "TIN": 6876,
      "crim": 6877,
      "critique": 6878,
      "criteria": 6879,
      "cient": 6880,
      "gratitude": 6881,
      "SubFoundation": 6882,
      "Subject": 6883,
      "interacting": 6884,
      "interplay": 6885,
      "elem": 6886,
      "causing": 6887,
      "panic": 6888,
      "testable": 6889,
      "lowest": 6890,
      "rejecting": 6891,
      "REAL": 6892,
      "─────┤": 6893,
      "clar": 6894,
      "verses": 6895,
      "turmoil": 6896,
      "ATIONAL": 6897,
      "Against": 6898,
      "logits": 6899,
      "LES": 6900,
      "teaching": 6901,
      "attractors": 6902,
      "regardless": 6903,
      "internally": 6904,
      "Worked": 6905,
      "sensuality": 6906,
      "Gram": 6907,
      "ullshit": 6908,
      "reduces": 6909,
      "evil": 6910,
      "Repulsion": 6911,
      "initiates": 6912,
      "predicts": 6913,
      "inspiration": 6914,
      "talk": 6915,
      "diagnosing": 6916,
      "Objective": 6917,
      "recognizing": 6918,
      "Basis": 6919,
      "modul": 6920,
      "Manifestations": 6921,
      "Once": 6922,
      "Continue": 6923,
      "increasing": 6924,
      "Queens": 6925,
      "genuinely": 6926,
      "primarily": 6927,
      "procrastination": 6928,
      "performs": 6929,
      "threats": 6930,
      "speed": 6931,
      "Clearance": 6932,
      "property": 6933,
      "Principles": 6934,
      "sentence": 6935,
      "ambivalence": 6936,
      "calculation": 6937,
      "OPERATOR": 6938,
      "organizational": 6939,
      "famili": 6940,
      "Combined": 6941,
      "loneliness": 6942,
      "grees": 6943,
      "]──[": 6944,
      "chronicities": 6945,
      "overwhelm": 6946,
      "governed": 6947,
      "ReverseCausal": 6948,
      "arguments": 6949,
      "float": 6950,
      "Integrated": 6951,
      "hope": 6952,
      "installation": 6953,
      "navigation": 6954,
      "Biological": 6955,
      "answers": 6956,
      "abandonment": 6957,
      "feeding": 6958,
      "philosophy": 6959,
      "continuous": 6960,
      "coordinates": 6961,
      "NAME": 6962,
      "benefit": 6963,
      "Required": 6964,
      "statistics": 6965,
      "chunks": 6966,
      "agreement": 6967,
      "blueprints": 6968,
      "_API_": 6969,
      "Expand": 6970,
      "Alternative": 6971,
      "SECONDARY": 6972,
      "afraid": 6973,
      "bottlen": 6974,
      "(),": 6975,
      "55": 6976,
      "6400": 6977,
      "?:": 6978,
      "Cases": 6979,
      "Dial": 6980,
      "EM": 6981,
      "Equ": 6982,
      "Either": 6983,
      "FF": 6984,
      "GPU": 6985,
      "Kings": 6986,
      "Lan": 6987,
      "Lower": 6988,
      "Sol": 6989,
      "Sep": 6990,
      "Sun": 6991,
      "Size": 6992,
      "Scrip": 6993,
      "Tik": 6994,
      "Used": 6995,
      "Wₙ": 6996,
      "Womb": 6997,
      "Y_": 6998,
      "belong": 6999,
      "fue": 7000,
      "free": 7001,
      "jac": 7002,
      "kar": 7003,
      "living": 7004,
      "lacking": 7005,
      "mapped": 7006,
      "nodes": 7007,
      "pack": 7008,
      "rad": 7009,
      "sn": 7010,
      "tables": 7011,
      "udo": 7012,
      "vulner": 7013,
      "wins": 7014,
      "ye": 7015,
      "₃)": 7016,
      "ali": 7017,
      "env": 7018,
      "ank": 7019,
      "recomm": 7020,
      "theor": 7021,
      "dev": 7022,
      "stay": 7023,
      "entment": 7024,
      "seudo": 7025,
      "Ther": 7026,
      "acc": 7027,
      "acro": 7028,
      "Intensi": 7029,
      "Indic": 7030,
      "prene": 7031,
      "uling": 7032,
      "icks": 7033,
      "ivot": 7034,
      "ceptac": 7035,
      "tending": 7036,
      "Ensure": 7037,
      "tivating": 7038,
      "Connect": 7039,
      "unstable": 7040,
      "uncomfortable": 7041,
      "adoption": 7042,
      "ired": 7043,
      "scattered": 7044,
      "Force": 7045,
      "request": 7046,
      "manuscript": 7047,
      "worldly": 7048,
      "Opport": 7049,
      "TIAL": 7050,
      "gras": 7051,
      "sub_": 7052,
      "curve": 7053,
      "transl": 7054,
      "Analogue": 7055,
      "════════════": 7056,
      "Applied": 7057,
      "brought": 7058,
      "monad": 7059,
      "respond": 7060,
      "somewhere": 7061,
      "Maximum": 7062,
      "izational": 7063,
      "medit": 7064,
      "skepticism": 7065,
      "logger": 7066,
      "augmented_corpus": 7067,
      "|--------------------": 7068,
      "transformers": 7069,
      "wasn": 7070,
      "Record": 7071,
      "Systematic": 7072,
      "sessions": 7073,
      "approximately": 7074,
      "constraint": 7075,
      "constrained": 7076,
      "Desires": 7077,
      "provider": 7078,
      "THEN": 7079,
      "deepens": 7080,
      "deepest": 7081,
      "clearing": 7082,
      "temporary": 7083,
      "Hermetic": 7084,
      "failing": 7085,
      "Decom": 7086,
      "meanings": 7087,
      "inversions": 7088,
      "detec": 7089,
      "evaluate": 7090,
      "Modified": 7091,
      "compound": 7092,
      "cumulation": 7093,
      "attack": 7094,
      "Symbols": 7095,
      "defense": 7096,
      "Engineer": 7097,
      "Running": 7098,
      "NEGA": 7099,
      "Mastery": 7100,
      "Processor": 7101,
      "TKS_AST": 7102,
      "superficial": 7103,
      "───┐": 7104,
      "lenient": 7105,
      "emergency": 7106,
      "prevents": 7107,
      "Signs": 7108,
      "worthy": 7109,
      "}(\\": 7110,
      "softmax": 7111,
      "scale_": 7112,
      "propor": 7113,
      "filtering": 7114,
      "curriculum": 7115,
      "persistent": 7116,
      "Select": 7117,
      "LURE": 7118,
      "assert": 7119,
      "imaginative": 7120,
      "motivated": 7121,
      "Psychological": 7122,
      "MBER": 7123,
      "Retro": 7124,
      "established": 7125,
      "channel": 7126,
      "grammar": 7127,
      "answer": 7128,
      "WHAT": 7129,
      "strengthening": 7130,
      "measurable": 7131,
      "heavily": 7132,
      "EXPAND": 7133,
      "batch_size": 7134,
      "independently": 7135,
      "pessimism": 7136,
      "confirmations": 7137,
      "Targeted": 7138,
      "FAILURE": 7139,
      "600k": 7140,
      "suggests": 7141,
      "APPEN": 7142,
      "debugging": 7143,
      "Technical": 7144,
      "hormon": 7145,
      "Studies": 7146,
      "MARK": 7147,
      "poetry": 7148,
      "Grammar": 7149,
      "_API_KEY": 7150,
      "Language": 7151,
      "Scripts": 7152,
      "fueled": 7153,
      "NEGATIVE": 7154,
      "(♍": 7155,
      "66": 7156,
      "67": 7157,
      "<->": 7158,
      "Bud": 7159,
      "C_": 7160,
      "COR": 7161,
      "CPU": 7162,
      "Dim": 7163,
      "D_n": 7164,
      "Fail": 7165,
      "Hierarch": 7166,
      "IL": 7167,
      "IMP": 7168,
      "Jenn": 7169,
      "KNOW": 7170,
      "Mixed": 7171,
      "Nation": 7172,
      "Ow": 7173,
      "PRE": 7174,
      "Pitfalls": 7175,
      "RU": 7176,
      "Sti": 7177,
      "User": 7178,
      "Uses": 7179,
      "Wes": 7180,
      "Watch": 7181,
      "_0": 7182,
      "_valid": 7183,
      "_foundation": 7184,
      "_pass": 7185,
      "_similarity": 7186,
      "_indices": 7187,
      "_training_": 7188,
      "binary": 7189,
      "custom": 7190,
      "dark": 7191,
      "dummy": 7192,
      "evol": 7193,
      "fasc": 7194,
      "gut": 7195,
      "governing": 7196,
      "hide": 7197,
      "kun": 7198,
      "lam": 7199,
      "last": 7200,
      "luck": 7201,
      "mal": 7202,
      "mixed": 7203,
      "member": 7204,
      "rary": 7205,
      "rich": 7206,
      "tone": 7207,
      "upon": 7208,
      "|---": 7209,
      "}]": 7210,
      "λ_": 7211,
      "₆)": 7212,
      "├─────┼─────┼─────┼─────┼": 7213,
      "┴───────": 7214,
      "tise": 7215,
      "inf": 7216,
      "inks": 7217,
      "inery": 7218,
      "inadequ": 7219,
      "enable": 7220,
      "isha": 7221,
      "arbit": 7222,
      "theoretical": 7223,
      "demic": 7224,
      "decre": 7225,
      "defic": 7226,
      "vector": 7227,
      "leave": 7228,
      "ident": 7229,
      "stances": 7230,
      "hypothesis": 7231,
      "**.": 7232,
      "conclusion": 7233,
      "omatic": 7234,
      "Inner": 7235,
      "Income": 7236,
      "Introduction": 7237,
      "trum": 7238,
      "abundance": 7239,
      "Encoding": 7240,
      "Rein": 7241,
      "Rewire": 7242,
      "Goals": 7243,
      "tyle": 7244,
      "happiness": 7245,
      "images": 7246,
      "chart": 7247,
      "uries": 7248,
      "plies": 7249,
      "Extract": 7250,
      "unexpected": 7251,
      "unwanted": 7252,
      "etent": 7253,
      "addiction": 7254,
      "shield": 7255,
      "ope": 7256,
      "opic": 7257,
      "Triggers": 7258,
      "encoder": 7259,
      "intent": 7260,
      "Forget": 7261,
      "few": 7262,
      "Ch_": 7263,
      "Checks": 7264,
      "Sugges": 7265,
      "Neg": 7266,
      "possibility": 7267,
      "throughout": 7268,
      "timestamp": 7269,
      "associative": 7270,
      "drop": 7271,
      "endpoint": 7272,
      "Subfoundation": 7273,
      "SubFoundationInv": 7274,
      "five": 7275,
      "interference": 7276,
      "->,": 7277,
      "Anch": 7278,
      "Ancient": 7279,
      "ASC": 7280,
      "heat": 7281,
      "engths": 7282,
      "identifies": 7283,
      "========================": 7284,
      "Unit": 7285,
      "Unthinkable": 7286,
      "brief": 7287,
      "needing": 7288,
      "ACTION": 7289,
      "Procedure": 7290,
      "loved": 7291,
      "volume": 7292,
      "simply": 7293,
      "Associations": 7294,
      "Meas": 7295,
      "productive": 7296,
      "doctrinal": 7297,
      "Disorder": 7298,
      "focuses": 7299,
      "maintenance": 7300,
      "Invoke": 7301,
      "shifted": 7302,
      "Shared": 7303,
      "differenti": 7304,
      "_d4": 7305,
      "_d6": 7306,
      "ordering": 7307,
      "certification": 7308,
      "solutions": 7309,
      "Perf": 7310,
      "evolve": 7311,
      "initiating": 7312,
      "Built": 7313,
      "ISI": 7314,
      "reflects": 7315,
      "┼───────┼───────┤": 7316,
      "Containing": 7317,
      "Community": 7318,
      "recognized": 7319,
      "aligns": 7320,
      "|----------|------|----------------": 7321,
      "ictory": 7322,
      "achievement": 7323,
      "charged": 7324,
      "theses": 7325,
      "emphasis": 7326,
      "Tool": 7327,
      "allowing": 7328,
      "openness": 7329,
      "harder": 7330,
      "matches": 7331,
      "TKS_LLM": 7332,
      "Strategic": 7333,
      "supervisor": 7334,
      "helpful": 7335,
      "performed": 7336,
      "POST": 7337,
      "POTEN": 7338,
      "EXEC": 7339,
      "addressed": 7340,
      "destruction": 7341,
      "lexive": 7342,
      "Inverts": 7343,
      "ambda": 7344,
      "┼───────┼───────┼───────┼───────┼───────┼───────┼───────┼───────": 7345,
      "constructs": 7346,
      "constructed": 7347,
      "normalization": 7348,
      "reliable": 7349,
      "Compare": 7350,
      "Become": 7351,
      "Philosop": 7352,
      "rituals": 7353,
      "stacle": 7354,
      "potent": 7355,
      "protective": 7356,
      "influencing": 7357,
      "Support": 7358,
      "breath": 7359,
      "damn": 7360,
      "┌─────────────────────────────────────┐": 7361,
      "broken": 7362,
      "schedule": 7363,
      "─────┬─────┬─────┬─────┬": 7364,
      "─────┴─────┴─────┴─────┴": 7365,
      "maintains": 7366,
      "descriptions": 7367,
      "Network": 7368,
      "choice": 7369,
      "impulse": 7370,
      "Deliverables": 7371,
      "Scale": 7372,
      "hibition": 7373,
      "classical": 7374,
      "Hardware": 7375,
      "carry": 7376,
      "thropic": 7377,
      "Absent": 7378,
      "Intuitive": 7379,
      "(♏)": 7380,
      "criticism": 7381,
      "machinery": 7382,
      "possessions": 7383,
      "Objectivity": 7384,
      "NUMBER": 7385,
      "favor": 7386,
      "Sched": 7387,
      "budget": 7388,
      "accessible": 7389,
      "─────────┼───────┼───────┼───────┼───────┼───────┼───────┼───────┼───────": 7390,
      "Reveals": 7391,
      "Separ": 7392,
      "Tikkun": 7393,
      "jacent": 7394,
      "Jennifer": 7395,
      "Western": 7396,
      "arbitrary": 7397,
      "|----------|------|----------------|-------------------|": 7398,
      "TKS_LLM_": 7399,
      "POTENTIAL": 7400,
      "EXECU": 7401,
      "─────────┼───────┼───────┼───────┼───────┼───────┼───────┼───────┼───────┼───────┼───────┤": 7402,
      "41": 7403,
      "800": 7404,
      "Astral": 7405,
      "Cour": 7406,
      "Count": 7407,
      "CBT": 7408,
      "Distance": 7409,
      "Equality": 7410,
      "EST": 7411,
      "Fund": 7412,
      "Fast": 7413,
      "Pain": 7414,
      "P_n": 7415,
      "Save": 7416,
      "Saint": 7417,
      "Soft": 7418,
      "Tasks": 7419,
      "Wn": 7420,
      "Want": 7421,
      "W_n": 7422,
      "cd": 7423,
      "casca": 7424,
      "ctions": 7425,
      "eye": 7426,
      "femin": 7427,
      "global": 7428,
      "lash": 7429,
      "pet": 7430,
      "pact": 7431,
      "radical": 7432,
      "saw": 7433,
      "sacred": 7434,
      "uled": 7435,
      "}\")": 7436,
      "₀,": 7437,
      "₇}": 7438,
      "ony": 7439,
      "alter": 7440,
      "espec": 7441,
      "reward": 7442,
      "recovery": 7443,
      "TKSNoetic": 7444,
      "itz": 7445,
      "isma": 7446,
      "decode": 7447,
      "degrees": 7448,
      "stall": 7449,
      "ented": 7450,
      "moder": 7451,
      "totype": 7452,
      "consequence": 7453,
      "Validated": 7454,
      "account": 7455,
      "acquiring": 7456,
      "tress": 7457,
      "prog": 7458,
      "tele": 7459,
      "elcome": 7460,
      "Deple": 7461,
      "appreci": 7462,
      "ilities": 7463,
      "preven": 7464,
      "cam": 7465,
      "tiness": 7466,
      "Enlightened": 7467,
      "emis": 7468,
      "verified": 7469,
      "urday": 7470,
      "exe": 7471,
      "exoteric": 7472,
      "exceed": 7473,
      "pliance": 7474,
      "earing": 7475,
      "Explicit": 7476,
      "symbolism": 7477,
      "Contr": 7478,
      "resh": 7479,
      "resurre": 7480,
      "ipsch": 7481,
      "ipping": 7482,
      "agency": 7483,
      "neural": 7484,
      "meet": 7485,
      "haven": 7486,
      "Comparison": 7487,
      "Compliance": 7488,
      "Management": 7489,
      "Always": 7490,
      "|--------|-------|": 7491,
      "Challeng": 7492,
      "Stati": 7493,
      "flat": 7494,
      "timately": 7495,
      "grace": 7496,
      "rob": 7497,
      "specified": 7498,
      "ially": 7499,
      "relax": 7500,
      "hasn": 7501,
      "live": 7502,
      "pansions": 7503,
      "INPUT": 7504,
      "bring": 7505,
      "branch": 7506,
      "Provide": 7507,
      "TEG": 7508,
      "realistic": 7509,
      "guess": 7510,
      "lecting": 7511,
      "lected": 7512,
      "signatures": 7513,
      "ORY": 7514,
      "sequential": 7515,
      "successes": 7516,
      "faults": 7517,
      "Agg": 7518,
      "otherwise": 7519,
      "test_sanitize_augmented": 7520,
      "Impact": 7521,
      "Beyond": 7522,
      "followed": 7523,
      "everyone": 7524,
      "circum": 7525,
      "checklist": 7526,
      "Graph": 7527,
      "reduction": 7528,
      "Parame": 7529,
      "attracts": 7530,
      "Obser": 7531,
      "Generation": 7532,
      "observer": 7533,
      "observed": 7534,
      "compiler": 7535,
      "Symbolic": 7536,
      "optimism": 7537,
      "typescript": 7538,
      "thesize": 7539,
      "truths": 7540,
      "Percenter": 7541,
      "aims": 7542,
      "noetic_dim": 7543,
      "nu_k": 7544,
      "CHAN": 7545,
      "retrieval": 7546,
      "longing": 7547,
      "augmentation_": 7548,
      "augmentation_metrics": 7549,
      "Recognition": 7550,
      "constants": 7551,
      "networks": 7552,
      "software": 7553,
      "facts": 7554,
      "decoding": 7555,
      "ECT": 7556,
      "weekly": 7557,
      "waiting": 7558,
      "anglement": 7559,
      "MANIF": 7560,
      "run_teacher": 7561,
      "run_scenario_inversion": 7562,
      "Methodology": 7563,
      "dimensions": 7564,
      "Predictive": 7565,
      "Predicted": 7566,
      "overwhelming": 7567,
      "Saturday": 7568,
      "deterministic": 7569,
      "Implemented": 7570,
      "Reduce": 7571,
      "Includes": 7572,
      "previously": 7573,
      "Commutativity": 7574,
      "artificial": 7575,
      "walk": 7576,
      "various": 7577,
      "burnout": 7578,
      "computer": 7579,
      "CRI": 7580,
      "looking": 7581,
      "intellectually": 7582,
      "Periodic": 7583,
      "from_string": 7584,
      "Depth": 7585,
      "Entity": 7586,
      "emonial": 7587,
      "electrom": 7588,
      "https": 7589,
      "Hours": 7590,
      "strugg": 7591,
      "flexibility": 7592,
      "Overwhelm": 7593,
      "birth": 7594,
      "CANONICAL": 7595,
      "Accuracy": 7596,
      "familiar": 7597,
      "preneur": 7598,
      "APPENDI": 7599,
      "feminine": 7600,
      "especially": 7601,
      "TKSNoeticLM": 7602,
      "preventing": 7603,
      "ipschitz": 7604,
      "\"?": 7605,
      "(⟨": 7606,
      "130": 7607,
      "37": 7608,
      "=\"": 7609,
      "Car": 7610,
      "CASE": 7611,
      "Coffee": 7612,
      "During": 7613,
      "Dummy": 7614,
      "EE": 7615,
      "Field": 7616,
      "Gem": 7617,
      "Hom": 7618,
      "HAND": 7619,
      "HOW": 7620,
      "Mid": 7621,
      "Night": 7622,
      "OVE": 7623,
      "Plo": 7624,
      "RO": 7625,
      "Smoke": 7626,
      "Session": 7627,
      "Tz": 7628,
      "Torch": 7629,
      "Ves": 7630,
      "Well": 7631,
      "[\\": 7632,
      "_X": 7633,
      "_story": 7634,
      "_report": 7635,
      "_scores": 7636,
      "asion": 7637,
      "ager": 7638,
      "bind": 7639,
      "backs": 7640,
      "born": 7641,
      "cue": 7642,
      "cli": 7643,
      "eq": 7644,
      "f_B": 7645,
      "gent": 7646,
      "gpt": 7647,
      "gemini": 7648,
      "later": 7649,
      "lambda": 7650,
      "ns": 7651,
      "oice": 7652,
      "romantic": 7653,
      "sus": 7654,
      "tx": 7655,
      "tz": 7656,
      "tun": 7657,
      "utic": 7658,
      "v0": 7659,
      "wounds": 7660,
      "yam": 7661,
      "yields": 7662,
      "zation": 7663,
      "├─────┼": 7664,
      "tired": 7665,
      "infrastructure": 7666,
      "enlightenment": 7667,
      "depression": 7668,
      "deploy": 7669,
      "perman": 7670,
      "semb": 7671,
      "secre": 7672,
      "selection": 7673,
      "**^": 7674,
      "olog": 7675,
      "ulary": 7676,
      "elif": 7677,
      "appeal": 7678,
      "appings": 7679,
      "apport": 7680,
      "ivil": 7681,
      "ilest": 7682,
      "cad": 7683,
      "ticip": 7684,
      "Entr": 7685,
      "cultur": 7686,
      "amed": 7687,
      "imtz": 7688,
      "cost": 7689,
      "extract": 7690,
      "noticing": 7691,
      "plots": 7692,
      "Try": 7693,
      "Maps": 7694,
      "Exoteric": 7695,
      "Consent": 7696,
      "adding": 7697,
      "shut": 7698,
      "outlook": 7699,
      "such": 7700,
      "scarcity": 7701,
      "Prog": 7702,
      "spect": 7703,
      "Many": 7704,
      "velation": 7705,
      "bytecode": 7706,
      "discomfort": 7707,
      "discovers": 7708,
      "paign": 7709,
      "roots": 7710,
      "obsc": 7711,
      "overall": 7712,
      "statement": 7713,
      "Defined": 7714,
      "newcommand": 7715,
      "uilt": 7716,
      "ffective": 7717,
      "lining": 7718,
      "influenced": 7719,
      "attractions": 7720,
      "upper": 7721,
      "background": 7722,
      "supported": 7723,
      "traces": 7724,
      "minor": 7725,
      "minute": 7726,
      "Projection": 7727,
      "boolean": 7728,
      "Lead": 7729,
      "fying": 7730,
      "faster": 7731,
      "Measure": 7732,
      "LEMETR": 7733,
      "Scenarios": 7734,
      "|-----------------": 7735,
      "misaligned": 7736,
      "embers": 7737,
      "regression": 7738,
      "Discipline": 7739,
      "writer": 7740,
      "written": 7741,
      "typing": 7742,
      "Destr": 7743,
      "described": 7744,
      "Shadow": 7745,
      "Overall": 7746,
      "Ground": 7747,
      "Parser": 7748,
      "rightarrow": 7749,
      "differently": 7750,
      "passions": 7751,
      "functionally": 7752,
      "Models": 7753,
      "emptiness": 7754,
      "Feelings": 7755,
      "instinct": 7756,
      "refers": 7757,
      "projecting": 7758,
      "loading": 7759,
      "moved": 7760,
      "survi": 7761,
      "involved": 7762,
      "Doesn": 7763,
      "letters": 7764,
      "144": 7765,
      "Ongoing": 7766,
      "breaks": 7767,
      "breakthrough": 7768,
      "Monitoring": 7769,
      "etheric": 7770,
      "Someone": 7771,
      "integrate": 7772,
      "oredom": 7773,
      "chair": 7774,
      "morph": 7775,
      "negation": 7776,
      "top_k": 7777,
      "─────────────────┼─────────────────┼─────────────────": 7778,
      "cosine": 7779,
      "fallback": 7780,
      "affected": 7781,
      "finding": 7782,
      "Simpl": 7783,
      "Stage_": 7784,
      "courage": 7785,
      "Recursion": 7786,
      "eigenvalue": 7787,
      "Rulebook": 7788,
      "keeping": 7789,
      "secure": 7790,
      "plot_metrics": 7791,
      "competing": 7792,
      "OFF": 7793,
      "proofs": 7794,
      "Compiler": 7795,
      "Optimal": 7796,
      "Optimization": 7797,
      "_________________________________________________": 7798,
      "(♊)": 7799,
      "bodies": 7800,
      "Reflexive": 7801,
      "historical": 7802,
      "literal": 7803,
      "sexual": 7804,
      "coordination": 7805,
      "validator_pass": 7806,
      "technical": 7807,
      "Certain": 7808,
      "┼─────────────────┤": 7809,
      "hostile": 7810,
      "improvement": 7811,
      "FICTION": 7812,
      "quickly": 7813,
      "commitment": 7814,
      "choices": 7815,
      "hatred": 7816,
      "demand": 7817,
      "tks_ll": 7818,
      "sensitivity": 7819,
      "illusion": 7820,
      "traditions": 7821,
      "elevated": 7822,
      "Secondary": 7823,
      "expressing": 7824,
      "collapse": 7825,
      "satisfying": 7826,
      "masculine": 7827,
      "vibratory": 7828,
      "adjustment": 7829,
      "Triple": 7830,
      "introduced": 7831,
      "atria": 7832,
      "Removal": 7833,
      "model_output": 7834,
      "Limited": 7835,
      "sharp": 7836,
      "ABOVE": 7837,
      "decay": 7838,
      "Different": 7839,
      "Policy": 7840,
      "Explain": 7841,
      "hierarchies": 7842,
      "detector": 7843,
      "phenomena": 7844,
      "gathering": 7845,
      "ElementInv_": 7846,
      "dissect": 7847,
      "empowering": 7848,
      "flashlight": 7849,
      "TOKEN_": 7850,
      "TING": 7851,
      "hormonal": 7852,
      "┴───────┴───────": 7853,
      "============================": 7854,
      "Contrastive": 7855,
      "Gematria": 7856,
      "Tzimtz": 7857,
      "Vessel": 7858,
      "txt": 7859,
      "├─────┼─────────────────┼─────────────────┼─────────────────": 7860,
      "cultural": 7861,
      "LEMETRY_": 7862,
      "Tzimtzum": 7863,
      "├─────┼─────────────────┼─────────────────┼─────────────────┼─────────────────┤": 7864,
      "+=": 7865,
      "31": 7866,
      "47": 7867,
      "5_d5": 7868,
      "65": 7869,
      "89": 7870,
      "Big": 7871,
      "Card": 7872,
      "Close": 7873,
      "Dₘ": 7874,
      "EQ": 7875,
      "Ever": 7876,
      "Found": 7877,
      "Ho": 7878,
      "Jus": 7879,
      "Job": 7880,
      "N1": 7881,
      "Sci": 7882,
      "Sample": 7883,
      "Ur": 7884,
      "Var": 7885,
      "VII": 7886,
      "Wa": 7887,
      "Wₘ": 7888,
      "]`": 7889,
      "]→": 7890,
      "^(": 7891,
      "_M": 7892,
      "_score": 7893,
      "bb": 7894,
      "bene": 7895,
      "catastr": 7896,
      "far": 7897,
      "f_C": 7898,
      "hous": 7899,
      "mn": 7900,
      "mid": 7901,
      "mits": 7902,
      "near": 7903,
      "oing": 7904,
      "pting": 7905,
      "slight": 7906,
      "savings": 7907,
      "xic": 7908,
      "zone": 7909,
      "|\\": 7910,
      "}`:": 7911,
      "νZ": 7912,
      "ψ̂": 7913,
      "ince": 7914,
      "analog": 7915,
      "-->": 7916,
      "TKSExpression": 7917,
      "isol": 7918,
      "arithmetic": 7919,
      "static": 7920,
      "search": 7921,
      "told": 7922,
      "today": 7923,
      "conce": 7924,
      "conven": 7925,
      "accompl": 7926,
      "accumulation": 7927,
      "quanti": 7928,
      "pride": 7929,
      "pires": 7930,
      "Debt": 7931,
      "Deeper": 7932,
      "expon": 7933,
      "poverty": 7934,
      "pling": 7935,
      "Trying": 7936,
      "plements": 7937,
      "unless": 7938,
      "unconsciously": 7939,
      "unfol": 7940,
      "restric": 7941,
      "ips": 7942,
      "opin": 7943,
      "scre": 7944,
      "scape": 7945,
      "Word": 7946,
      "los": 7947,
      "loving": 7948,
      "hael": 7949,
      "Already": 7950,
      "|--------|------": 7951,
      "Chen": 7952,
      "Suite": 7953,
      "Learn": 7954,
      "delta": 7955,
      "Habits": 7956,
      "crates": 7957,
      "workflows": 7958,
      "0000": 7959,
      "interval": 7960,
      "engage": 7961,
      "suppress": 7962,
      "service": 7963,
      "REVI": 7964,
      "claude": 7965,
      "realizes": 7966,
      "magick": 7967,
      "BELOW": 7968,
      "existential": 7969,
      "correspond": 7970,
      "resonate": 7971,
      "|-----------------|": 7972,
      "attractor_": 7973,
      "cognition": 7974,
      "element_": 7975,
      "passive": 7976,
      "margin": 7977,
      "extre": 7978,
      "develops": 7979,
      "iteration": 7980,
      "iterations": 7981,
      "Inversions": 7982,
      "InversionMode": 7983,
      "patience": 7984,
      "OUR": 7985,
      "drawing": 7986,
      "meaningful": 7987,
      "attracting": 7988,
      "Observe": 7989,
      "return_": 7990,
      "synchron": 7991,
      "IFIC": 7992,
      "hiding": 7993,
      "modulation": 7994,
      "competent": 7995,
      "attacks": 7996,
      "Empirical": 7997,
      "increased": 7998,
      "<-,": 7999,
      "reinforces": 8000,
      "equivalent": 8001,
      "───┴": 8002,
      "thresholds": 8003,
      "SUB": 8004,
      "growing": 8005,
      "long_v4": 8006,
      "individuals": 8007,
      "Signatures": 8008,
      "addresses": 8009,
      "Logger": 8010,
      "PyTorch": 8011,
      "Origin": 8012,
      "Pathway": 8013,
      "practicing": 8014,
      "|------------------|": 8015,
      "faces": 8016,
      "Mini": 8017,
      "termine": 8018,
      "Profound": 8019,
      "serve_": 8020,
      "currency": 8021,
      "prompts": 8022,
      "Getting": 8023,
      "WORK": 8024,
      "strictly": 8025,
      "tokenizer": 8026,
      "m_core": 8027,
      "imagination": 8028,
      "contractions": 8029,
      "explanations": 8030,
      "Synthesis": 8031,
      "ctrl": 8032,
      "aggreg": 8033,
      "Consistency": 8034,
      "Repeated": 8035,
      "DAG": 8036,
      "credibility": 8037,
      "considered": 8038,
      "refinement": 8039,
      "violations": 8040,
      "easier": 8041,
      "distortion": 8042,
      "correlates": 8043,
      "VALID_": 8044,
      "seasonal": 8045,
      "pessimistic": 8046,
      "warnings": 8047,
      "advoc": 8048,
      "Remote": 8049,
      "Minimum": 8050,
      "recursive": 8051,
      "Early": 8052,
      "religious": 8053,
      "prioriti": 8054,
      "decline": 8055,
      "friendship": 8056,
      "company": 8057,
      "agnetic": 8058,
      "Pairs": 8059,
      "Correct": 8060,
      "trials": 8061,
      "competitor": 8062,
      "STRUCTURE": 8063,
      "Changing": 8064,
      "Persistence": 8065,
      "transitions": 8066,
      "Event": 8067,
      "Michael": 8068,
      "robust": 8069,
      "MANIFEST": 8070,
      "electromagnetic": 8071,
      "tks_llm_core": 8072,
      "unfolding": 8073,
      "!\"": 8074,
      "'}": 8075,
      "({": 8076,
      "64": 8077,
      "?]": 8078,
      "A_": 8079,
      "Amb": 8080,
      "BN": 8081,
      "Bo": 8082,
      "Ben": 8083,
      "Cipher": 8084,
      "Clean": 8085,
      "Dig": 8086,
      "Ful": 8087,
      "HR": 8088,
      "Hol": 8089,
      "Hope": 8090,
      "Lipschitz": 8091,
      "N10": 8092,
      "Ou": 8093,
      "Old": 8094,
      "Pₘ": 8095,
      "Rob": 8096,
      "Random": 8097,
      "View": 8098,
      "Waning": 8099,
      "X2": 8100,
      "[]": 8101,
      "\\}": 8102,
      "]───": 8103,
      "_count": 8104,
      "_Node": 8105,
      "_SUMMARY": 8106,
      "bidirectional": 8107,
      "bullshit": 8108,
      "ck": 8109,
      "dt": 8110,
      "doll": 8111,
      "fare": 8112,
      "finds": 8113,
      "f_D": 8114,
      "functor": 8115,
      "gur": 8116,
      "gust": 8117,
      "gating": 8118,
      "gold": 8119,
      "great": 8120,
      "hes": 8121,
      "hits": 8122,
      "ius": 8123,
      "knew": 8124,
      "lights": 8125,
      "loud": 8126,
      "mature": 8127,
      "macro": 8128,
      "sl": 8129,
      "tune": 8130,
      "taken": 8131,
      "uments": 8132,
      "vic": 8133,
      "witness": 8134,
      "{...}": 8135,
      "ν6": 8136,
      "₄)": 8137,
      "tiful": 8138,
      "along": 8139,
      "inability": 8140,
      "info": 8141,
      "ertain": 8142,
      "ened": 8143,
      "enjoy": 8144,
      "entheses": 8145,
      "orts": 8146,
      "ancing": 8147,
      "rec": 8148,
      "repor": 8149,
      "reverse": 8150,
      "reacting": 8151,
      "reframing": 8152,
      "receptac": 8153,
      "TKSLLM": 8154,
      "inging": 8155,
      "permission": 8156,
      "ste": 8157,
      "stuff": 8158,
      "entre": 8159,
      "mock": 8160,
      "Things": 8161,
      "apart": 8162,
      "Inference": 8163,
      "tried": 8164,
      "Dead": 8165,
      "education": 8166,
      "────┘": 8167,
      "prefer": 8168,
      "precedence": 8169,
      "iffer": 8170,
      "teness": 8171,
      "Interplay": 8172,
      "industr": 8173,
      "Interpretability": 8174,
      "Planetary": 8175,
      "verbs": 8176,
      "checking": 8177,
      "urge": 8178,
      "export": 8179,
      "expansions": 8180,
      "poin": 8181,
      "pole": 8182,
      "poster": 8183,
      "Trust": 8184,
      "unpredictable": 8185,
      "unthinkable": 8186,
      "Nothing": 8187,
      "respected": 8188,
      "resentment": 8189,
      "stra": 8190,
      "ignored": 8191,
      "Rest": 8192,
      "Prop": 8193,
      "Computation": 8194,
      "Activation": 8195,
      "___________": 8196,
      "Alright": 8197,
      "Charge": 8198,
      "Sust": 8199,
      "distinction": 8200,
      "Stabil": 8201,
      "associate": 8202,
      "spectrum": 8203,
      "draining": 8204,
      "vibe": 8205,
      "umer": 8206,
      "relate": 8207,
      "venv": 8208,
      "interests": 8209,
      "─────────────────────┐": 8210,
      "uncertain": 8211,
      "Analogy": 8212,
      "cold": 8213,
      "Unlike": 8214,
      "Until": 8215,
      "stick": 8216,
      "goal_state": 8217,
      "ANTU": 8218,
      "responsibility": 8219,
      "experiment": 8220,
      "experiments": 8221,
      "rhythmically": 8222,
      "mination": 8223,
      "minus": 8224,
      "TELEMETRY_": 8225,
      "realize": 8226,
      "Weight": 8227,
      "capital": 8228,
      "tained": 8229,
      "resonant": 8230,
      "resonating": 8231,
      "virtue": 8232,
      "Immediate": 8233,
      "transformations": 8234,
      "Blind": 8235,
      "blockage": 8236,
      "controlling": 8237,
      "checkpoints": 8238,
      "Should": 8239,
      "nutrition": 8240,
      "_d2": 8241,
      "Arti": 8242,
      "Previous": 8243,
      "raised": 8244,
      "centuries": 8245,
      "Manifesting": 8246,
      "smart": 8247,
      "ENCE": 8248,
      "Checkpoint": 8249,
      "PureDesire": 8250,
      "_nl_": 8251,
      "memor": 8252,
      "IFI": 8253,
      "IFS": 8254,
      "lessly": 8255,
      "Modes": 8256,
      "14T": 8257,
      "Monday": 8258,
      "Monitor": 8259,
      "Emp": 8260,
      "3_PRINT": 8261,
      "Gods": 8262,
      "terminology": 8263,
      "categor": 8264,
      "neglect": 8265,
      "─────────────────┘": 8266,
      "fuels": 8267,
      "motivational": 8268,
      "preserve": 8269,
      "limits": 8270,
      "shaping": 8271,
      "QUANTU": 8272,
      "equal": 8273,
      "superscripts": 8274,
      "performing": 8275,
      "'](": 8276,
      "courses": 8277,
      "symmetry": 8278,
      "expertise": 8279,
      "taxonomy": 8280,
      "Normalization": 8281,
      "Wrong": 8282,
      "improves": 8283,
      "Skills": 8284,
      "precisely": 8285,
      "beginning": 8286,
      "AST_Node": 8287,
      "formats": 8288,
      "_ids": 8289,
      "visualize": 8290,
      "ParallelAnalogue": 8291,
      "basics": 8292,
      "TYPE": 8293,
      "ValueError": 8294,
      "definitive": 8295,
      "treats": 8296,
      "Coherence": 8297,
      "protected": 8298,
      "Visualization": 8299,
      "policy": 8300,
      "alternatives": 8301,
      "imagine": 8302,
      "Enhancements": 8303,
      "Suppor": 8304,
      "motivate": 8305,
      "iosity": 8306,
      "┌────────────────────────────────────────────────────────────────────────": 8307,
      "scheduling": 8308,
      "saved": 8309,
      "aggression": 8310,
      "Program": 8311,
      "transmitting": 8312,
      "Complexity": 8313,
      "quick_train": 8314,
      "parameter": 8315,
      "discuss": 8316,
      "periodic": 8317,
      "Partnership": 8318,
      "Guide": 8319,
      "excluded": 8320,
      "Production": 8321,
      "expr_elements": 8322,
      "expr_ops": 8323,
      "rpm": 8324,
      "slowly": 8325,
      "trees": 8326,
      "Practitioner": 8327,
      "VALIDATION": 8328,
      "benefits": 8329,
      "└────────────────────────────────────────────────────────────────────────": 8330,
      "Committed": 8331,
      "limitations": 8332,
      "figure": 8333,
      "corporate": 8334,
      "journaling": 8335,
      "diet": 8336,
      "vocabulary": 8337,
      "locked": 8338,
      "fragment": 8339,
      "Popular": 8340,
      "mindedness": 8341,
      "hurt": 8342,
      "accepting": 8343,
      "GUIDE": 8344,
      "Harmon": 8345,
      "contemplation": 8346,
      "Maintaining": 8347,
      "discernment": 8348,
      "diagonal": 8349,
      "rapid": 8350,
      "bottleneck": 8351,
      "Hierarchical": 8352,
      "Still": 8353,
      "deficit": 8354,
      "ASCII": 8355,
      "Fundamental": 8356,
      "exceeds": 8357,
      "EEG": 8358,
      "HANDOFF": 8359,
      "yaml": 8360,
      "cadian": 8361,
      "morphic": 8362,
      "houses": 8363,
      "accomplish": 8364,
      "REVISED": 8365,
      "BNF": 8366,
      "HRV": 8367,
      "Outer": 8368,
      "QUANTUM": 8369,
      "\"]": 8370,
      "%,": 8371,
      "Age": 8372,
      "CA": 8373,
      "Dating": 8374,
      "Densi": 8375,
      "E2": 8376,
      "Ess": 8377,
      "ECK": 8378,
      "FT": 8379,
      "Light": 8380,
      "Row": 8381,
      "RIG": 8382,
      "TP": 8383,
      "UN": 8384,
      "Vag": 8385,
      "Vision": 8386,
      "W_": 8387,
      "Welcome": 8388,
      "\\[": 8389,
      "\\]": 8390,
      "_output": 8391,
      "_size": 8392,
      "_extended": 8393,
      "`^": 8394,
      "astr": 8395,
      "bul": 8396,
      "bur": 8397,
      "bance": 8398,
      "bug": 8399,
      "catch": 8400,
      "duration": 8401,
      "dysfunction": 8402,
      "eign": 8403,
      "easy": 8404,
      "gs": 8405,
      "gates": 8406,
      "guilt": 8407,
      "half": 8408,
      "iality": 8409,
      "lers": 8410,
      "mappings": 8411,
      "pages": 8412,
      "paying": 8413,
      "rise": 8414,
      "sun": 8415,
      "split": 8416,
      "vital": 8417,
      "wp": 8418,
      "Φᵢ": 8419,
      "₁-": 8420,
      "₆:": 8421,
      "₉)": 8422,
      "♋,": 8423,
      "erci": 8424,
      "ergetic": 8425,
      "enlightened": 8426,
      "estim": 8427,
      "third": 8428,
      "org": 8429,
      "replic": 8430,
      "ousy": 8431,
      "iss": 8432,
      "inge": 8433,
      "cel": 8434,
      "cele": 8435,
      "hyperstitions": 8436,
      "entanglement": 8437,
      "motions": 8438,
      "Validator": 8439,
      "Info": 8440,
      "ultimately": 8441,
      "ils": 8442,
      "────┼": 8443,
      "nday": 8444,
      "came": 8445,
      "ifiable": 8446,
      "oga": 8447,
      "Energetic": 8448,
      "Reversal": 8449,
      "among": 8450,
      "verb": 8451,
      "Call": 8452,
      "iece": 8453,
      "coinc": 8454,
      "nob": 8455,
      "friction": 8456,
      "Contra": 8457,
      "Contraction": 8458,
      "plex": 8459,
      "unger": 8460,
      "adaptation": 8461,
      "opening": 8462,
      "nesses": 8463,
      "illar": 8464,
      "ealousy": 8465,
      "loaded": 8466,
      "formula": 8467,
      "spik": 8468,
      "bot": 8469,
      "Checking": 8470,
      "Choice": 8471,
      "Sunday": 8472,
      "Opposition": 8473,
      "parent": 8474,
      "dissolution": 8475,
      "disease": 8476,
      "Karma": 8477,
      "cra": 8478,
      "drain": 8479,
      "driver": 8480,
      "versions": 8481,
      "Subconscious": 8482,
      "subsequ": 8483,
      "fiable": 8484,
      "interest": 8485,
      "intersection": 8486,
      "interrup": 8487,
      "obses": 8488,
      "curiosity": 8489,
      "cessive": 8490,
      "Strengthen": 8491,
      "Strengths": 8492,
      "manifold": 8493,
      "colors": 8494,
      "positional": 8495,
      "engaging": 8496,
      "complementary": 8497,
      "canonical_": 8498,
      "ongoing": 8499,
      "identical": 8500,
      "Universal": 8501,
      "upid": 8502,
      "deriv": 8503,
      "server": 8504,
      "mysticism": 8505,
      "diff": 8506,
      "Allow": 8507,
      "ACQU": 8508,
      "...:": 8509,
      "guiding": 8510,
      "guardrails": 8511,
      "confident": 8512,
      "whose": 8513,
      "TRAC": 8514,
      "ORT": 8515,
      "|------------|-------|--------": 8516,
      "Sever": 8517,
      "LEFT": 8518,
      "activating": 8519,
      "Shield": 8520,
      "pass_rate": 8521,
      "presented": 8522,
      "metaphor": 8523,
      "Grounded": 8524,
      "Permutation": 8525,
      "ells": 8526,
      "teacher_augmented": 8527,
      "mechanical": 8528,
      "initiate": 8529,
      "Specifically": 8530,
      "Decoding": 8531,
      "predicted": 8532,
      "avoids": 8533,
      "projective": 8534,
      "load_augmented_": 8535,
      "flowing": 8536,
      "ENTI": 8537,
      "filled": 8538,
      "holdout": 8539,
      "Generated": 8540,
      "epoch_": 8541,
      "Contents": 8542,
      "Contains": 8543,
      "surrender": 8544,
      "learns": 8545,
      "irmations": 8546,
      "lowering": 8547,
      "Hyperstitions": 8548,
      "Appendices": 8549,
      "Successfully": 8550,
      "nl_corpus_": 8551,
      "CONTE": 8552,
      "preservation": 8553,
      "preserving": 8554,
      "closure": 8555,
      "LLMs": 8556,
      "stops": 8557,
      "stopped": 8558,
      "nu_0": 8559,
      "Simil": 8560,
      "cascade_": 8561,
      "hidden_dim": 8562,
      "smaller": 8563,
      "properly": 8564,
      "Writing": 8565,
      "Present": 8566,
      "Direction": 8567,
      "representation": 8568,
      "reliability": 8569,
      "vantage": 8570,
      "DITIONS": 8571,
      "calls": 8572,
      "Combine": 8573,
      "||||": 8574,
      "greater": 8575,
      "momentum": 8576,
      "Analytical": 8577,
      "overwhelmed": 8578,
      "examine": 8579,
      "cellence": 8580,
      "Ceremonial": 8581,
      "CUR": 8582,
      "D_substance": 8583,
      "flags": 8584,
      "Weaknesses": 8585,
      "Sections": 8586,
      "aggressive": 8587,
      "Bodily": 8588,
      "transmitter": 8589,
      "fitting": 8590,
      "audit": 8591,
      "Effective": 8592,
      "navigate": 8593,
      "solidation": 8594,
      "_ij": 8595,
      "oxy": 8596,
      "yearning": 8597,
      "Archetype": 8598,
      "Archetypes": 8599,
      "WORLDS": 8600,
      "heavy": 8601,
      "Magick": 8602,
      "philosoph": 8603,
      "workshops": 8604,
      "seasons": 8605,
      "oplus_T": 8606,
      "laborative": 8607,
      "digital": 8608,
      "Intuition": 8609,
      "looks": 8610,
      "dissoci": 8611,
      "HTTP": 8612,
      "CESS": 8613,
      "Downloads": 8614,
      "coupling": 8615,
      "ELIF": 8616,
      "transcendent": 8617,
      "ielding": 8618,
      "Starting": 8619,
      "ambiguity": 8620,
      "Imagine": 8621,
      "prepare_training_": 8622,
      "DecodeStory": 8623,
      "legitimate": 8624,
      "sparks": 8625,
      "Fuzz": 8626,
      "restoration": 8627,
      "Acceleration": 8628,
      "America": 8629,
      "Lisa": 8630,
      "muscle": 8631,
      "dedicated": 8632,
      "Decomposition": 8633,
      "campaign": 8634,
      "Challenges": 8635,
      "circumstances": 8636,
      "Parameter": 8637,
      "CRITICAL": 8638,
      "obscure": 8639,
      "Everthing": 8640,
      "mnt": 8641,
      "extreme": 8642,
      "serve_inference": 8643,
      "IFIED": 8644,
      "┌─────────────────────────────────────────────────────────────────────────────┐": 8645,
      "└─────────────────────────────────────────────────────────────────────────────┘": 8646,
      "Density": 8647,
      "RIGHT": 8648,
      "Contrast": 8649,
      "subsequent": 8650,
      "ACQUISI": 8651,
      "![": 8652,
      "').": 8653,
      ")).": 8654,
      "52": 8655,
      "Av": 8656,
      "Aca": 8657,
      "Best": 8658,
      "Bounded": 8659,
      "Burn": 8660,
      "DF": 8661,
      "Dist": 8662,
      "Fucking": 8663,
      "Fiction": 8664,
      "Gist": 8665,
      "Jun": 8666,
      "LF": 8667,
      "ML": 8668,
      "Mars": 8669,
      "Nurturing": 8670,
      "Oc": 8671,
      "Olam": 8672,
      "Pur": 8673,
      "PDF": 8674,
      "Rhythmic": 8675,
      "SS": 8676,
      "Sal": 8677,
      "San": 8678,
      "Sig": 8679,
      "Slow": 8680,
      "\\\\": 8681,
      "]:": 8682,
      "_p": 8683,
      "boun": 8684,
      "bounded": 8685,
      "boredom": 8686,
      "eig": 8687,
      "fre": 8688,
      "gated": 8689,
      "gone": 8690,
      "gains": 8691,
      "hus": 8692,
      "hust": 8693,
      "iform": 8694,
      "iability": 8695,
      "jur": 8696,
      "lives": 8697,
      "lasting": 8698,
      "mf": 8699,
      "mine": 8700,
      "mix": 8701,
      "oon": 8702,
      "oted": 8703,
      "pip": 8704,
      "rating": 8705,
      "rices": 8706,
      "spir": 8707,
      "ufact": 8708,
      "wer": 8709,
      "wast": 8710,
      "}\"": 8711,
      "ν4": 8712,
      "ν5": 8713,
      "ν8": 8714,
      "ν9": 8715,
      "νY": 8716,
      "——": 8717,
      "₇:": 8718,
      "₈,": 8719,
      "─[": 8720,
      "inated": 8721,
      "introd": 8722,
      "insecurity": 8723,
      "innovation": 8724,
      "refin": 8725,
      "recent": 8726,
      "recompose": 8727,
      "references": 8728,
      "replaces": 8729,
      "artic": 8730,
      "deci": 8731,
      "perate": 8732,
      "idx": 8733,
      "entory": 8734,
      "tom": 8735,
      "toxic": 8736,
      "conv": 8737,
      "terror": 8738,
      "apon": 8739,
      "ascent": 8740,
      "teem": 8741,
      "ofield": 8742,
      "icious": 8743,
      "elines": 8744,
      "iveness": 8745,
      "prep": 8746,
      "tense": 8747,
      "tends": 8748,
      "Rejec": 8749,
      "Reception": 8750,
      "ensures": 8751,
      "ternoon": 8752,
      "choo": 8753,
      "exit": 8754,
      "excessive": 8755,
      "composite": 8756,
      "fro": 8757,
      "Concrete": 8758,
      "residual": 8759,
      "adop": 8760,
      "adapt": 8761,
      "shadow": 8762,
      "sues": 8763,
      "lusion": 8764,
      "beat": 8765,
      "Proc": 8766,
      "Mother": 8767,
      "isible": 8768,
      "Comprehension": 8769,
      "seless": 8770,
      "managed": 8771,
      "Actions": 8772,
      "spaces": 8773,
      "rational": 8774,
      "entiated": 8775,
      "bool": 8776,
      "|--------|----------": 8777,
      "finally": 8778,
      "bypassing": 8779,
      "parative": 8780,
      "distraction": 8781,
      "discovery": 8782,
      "disgust": 8783,
      "corner": 8784,
      "flation": 8785,
      "rot": 8786,
      "drift": 8787,
      "subfoundation": 8788,
      "remote": 8789,
      "relative": 8790,
      "relief": 8791,
      "interacts": 8792,
      "arratives": 8793,
      "overr": 8794,
      "translate": 8795,
      "Anger": 8796,
      "Answ": 8797,
      "lier": 8798,
      "Advantage": 8799,
      "complement": 8800,
      "Attracting": 8801,
      "ripples": 8802,
      "Unable": 8803,
      "Unresolved": 8804,
      "INFOR": 8805,
      "ups": 8806,
      "series": 8807,
      "myths": 8808,
      "RESU": 8809,
      "TES": 8810,
      "...)": 8811,
      "guarante": 8812,
      "magnetism": 8813,
      "-----------------|": 8814,
      "Creates": 8815,
      "Feature": 8816,
      "ishing": 8817,
      "commut": 8818,
      "logy": 8819,
      "aversions": 8820,
      "setbacks": 8821,
      "missed": 8822,
      "contrast": 8823,
      "regions": 8824,
      "Distinction": 8825,
      "typical": 8826,
      "checked": 8827,
      "Short": 8828,
      "numogram": 8829,
      "certified": 8830,
      "Grow": 8831,
      "Verified": 8832,
      "elling": 8833,
      "Prepare": 8834,
      "right_idx": 8835,
      "P3B": 8836,
      "P3D": 8837,
      "deno": 8838,
      "|------|----------|": 8839,
      "Causes": 8840,
      "raise": 8841,
      "avoidances": 8842,
      "athy": 8843,
      "detail": 8844,
      "Checklist": 8845,
      "Letter": 8846,
      "axing": 8847,
      "axiom": 8848,
      "Contact": 8849,
      "synchronicities": 8850,
      "depending": 8851,
      "dependencies": 8852,
      "train_cuda": 8853,
      "letting": 8854,
      "ainstorm": 8855,
      "defensive": 8856,
      "optimistic": 8857,
      "optimizer": 8858,
      "breaking": 8859,
      "MATH": 8860,
      "Axes": 8861,
      "semantically": 8862,
      "Hypothesis": 8863,
      "----------------------------------------------------------------": 8864,
      "biases": 8865,
      "converted": 8866,
      "openai": 8867,
      "shaped": 8868,
      "TKS_Inversion": 8869,
      "TKS_Expr": 8870,
      "layered": 8871,
      "COMPIL": 8872,
      "couldn": 8873,
      "stopping": 8874,
      "ν_i": 8875,
      "ν_j": 8876,
      "Seeking": 8877,
      "'])": 8878,
      "moods": 8879,
      "dominance": 8880,
      "Noetica_A": 8881,
      "communities": 8882,
      "impacts": 8883,
      "repetitive": 8884,
      "Proble": 8885,
      "swap": 8886,
      "exciting": 8887,
      "left_idx": 8888,
      "originating": 8889,
      "Satisfaction": 8890,
      "pursue": 8891,
      "plotting": 8892,
      "normalize": 8893,
      "decoder": 8894,
      "randomly": 8895,
      "represented": 8896,
      "calculus": 8897,
      "OPERATIONAL": 8898,
      "Drive": 8899,
      "reaching": 8900,
      "streams": 8901,
      "AugmentationLogger": 8902,
      "promise": 8903,
      "numer": 8904,
      "gradient": 8905,
      "yclic": 8906,
      "mended": 8907,
      "FRACT": 8908,
      "appendix": 8909,
      "Coord": 8910,
      "energize": 8911,
      "(♋)": 8912,
      "revealing": 8913,
      "Morphis": 8914,
      "examined": 8915,
      "dramatic": 8916,
      "challenging": 8917,
      "characteristics": 8918,
      "hoping": 8919,
      "discussed": 8920,
      "Loading": 8921,
      "(♌)": 8922,
      "modify": 8923,
      "intensely": 8924,
      "efficiency": 8925,
      "Teacher": 8926,
      "institutions": 8927,
      "Motivational": 8928,
      "Series": 8929,
      "Scalar": 8930,
      "risks": 8931,
      "┌──────────────┐": 8932,
      "walking": 8933,
      "afts": 8934,
      "Plain": 8935,
      "simplified": 8936,
      "CRU": 8937,
      "distributions": 8938,
      "critic": 8939,
      "religion": 8940,
      "Launched": 8941,
      "└──────────────┘": 8942,
      "ambiguous": 8943,
      "pursuit": 8944,
      "Rigid": 8945,
      "Neuro": 8946,
      "arriage": 8947,
      "phrase": 8948,
      "════════════════════════════════════════════════════════════════════════════": 8949,
      "Balance": 8950,
      "endorse": 8951,
      "Family": 8952,
      "record": 8953,
      "Priority": 8954,
      "Characteristics": 8955,
      "possibilities": 8956,
      "Recommended": 8957,
      "uplicate": 8958,
      "REALITY": 8959,
      "Opportunity": 8960,
      "Budd": 8961,
      "CORRE": 8962,
      "Measures": 8963,
      "Schedule": 8964,
      "EXECUTION": 8965,
      "appreciation": 8966,
      "Carlos": 8967,
      "secret": 8968,
      "ilestone": 8969,
      "Leadership": 8970,
      "MiniLM": 8971,
      "victim": 8972,
      "entrepreneur": 8973,
      "ifferentiated": 8974,
      "plexity": 8975,
      "spikes": 8976,
      "|------------|-------|-------------------------|": 8977,
      "Academic": 8978,
      "RESULT": 8979,
      "----------------------------------------------------------------------": 8980,
      "COMPILER": 8981,
      "FRACTAL": 8982,
      ")=": 8983,
      ".”": 8984,
      "/`": 8985,
      "300": 8986,
      "43": 8987,
      "68": 8988,
      "79": 8989,
      "87": 8990,
      "900": 8991,
      "AK": 8992,
      "Cod": 8993,
      "CCESS": 8994,
      "Dn": 8995,
      "D_m": 8996,
      "Emotions": 8997,
      "Father": 8998,
      "GP": 8999,
      "Ge": 9000,
      "Gates": 9001,
      "Gnosis": 9002,
      "Gender": 9003,
      "Hold": 9004,
      "IX": 9005,
      "Its": 9006,
      "Jour": 9007,
      "Living": 9008,
      "M0": 9009,
      "Mar": 9010,
      "Ment": 9011,
      "MAST": 9012,
      "PAGE": 9013,
      "PRES": 9014,
      "Stim": 9015,
      "Score": 9016,
      "Script": 9017,
      "Soph": 9018,
      "Tit": 9019,
      "Wed": 9020,
      "Were": 9021,
      "Would": 9022,
      "Wave": 9023,
      "Years": 9024,
      "\\.": 9025,
      "]^": 9026,
      "_S": 9027,
      "_counter": 9028,
      "aven": 9029,
      "bits": 9030,
      "buff": 9031,
      "barri": 9032,
      "ctive": 9033,
      "cts": 9034,
      "date": 9035,
      "dates": 9036,
      "dying": 9037,
      "fun": 9038,
      "hate": 9039,
      "hum": 9040,
      "iation": 9041,
      "iers": 9042,
      "jum": 9043,
      "nes": 9044,
      "nesting": 9045,
      "oto": 9046,
      "obl": 9047,
      "rarely": 9048,
      "sf": 9049,
      "sen": 9050,
      "squ": 9051,
      "taining": 9052,
      "util": 9053,
      "v2": 9054,
      "vig": 9055,
      "vity": 9056,
      "νk": 9057,
      "₁.": 9058,
      "₂(": 9059,
      "altered": 9060,
      "alarm": 9061,
      "thor": 9062,
      "anthropic": 9063,
      "recover": 9064,
      "--|": 9065,
      "oub": 9066,
      "outs": 9067,
      "ingra": 9068,
      "dealing": 9069,
      "defaults": 9070,
      "called": 9071,
      "percent": 9072,
      "stats": 9073,
      "stupid": 9074,
      "enty": 9075,
      "Third": 9076,
      "oleness": 9077,
      "astic": 9078,
      "acun": 9079,
      "quer": 9080,
      "Inability": 9081,
      "trends": 9082,
      "priv": 9083,
      "offi": 9084,
      "ineffective": 9085,
      "pirically": 9086,
      "Theoretical": 9087,
      "appo": 9088,
      "appealing": 9089,
      "ilit": 9090,
      "prece": 9091,
      "cau": 9092,
      "casion": 9093,
      "withdraws": 9094,
      "abling": 9095,
      "Intermediate": 9096,
      "empirically": 9097,
      "odi": 9098,
      "ociety": 9099,
      "ama": 9100,
      "verifiable": 9101,
      "urations": 9102,
      "uristics": 9103,
      ")...": 9104,
      "frac": 9105,
      "frames": 9106,
      "Exper": 9107,
      "usual": 9108,
      "Const": 9109,
      "uns": 9110,
      "unable": 9111,
      "unrelated": 9112,
      "uniform": 9113,
      "Foundational": 9114,
      "resol": 9115,
      "striving": 9116,
      "Elev": 9117,
      "Respon": 9118,
      "adherence": 9119,
      "outward": 9120,
      "opposed": 9121,
      "NoeticInv": 9122,
      "manufact": 9123,
      "Activate": 9124,
      "spend": 9125,
      "entially": 9126,
      "Chann": 9127,
      "Suff": 9128,
      "disassociation": 9129,
      "corrup": 9130,
      "flight": 9131,
      "heres": 9132,
      "pathetic": 9133,
      "destiny": 9134,
      "rooted": 9135,
      "awn": 9136,
      "overeign": 9137,
      "amplifying": 9138,
      "String": 9139,
      "planes": 9140,
      "ALGE": 9141,
      "________________________": 9142,
      "perior": 9143,
      "news": 9144,
      "Applications": 9145,
      "upgrade": 9146,
      "stit": 9147,
      "SELF": 9148,
      "goal_": 9149,
      "dering": 9150,
      "brut": 9151,
      "supportive": 9152,
      "Projec": 9153,
      "loss_": 9154,
      "lossary": 9155,
      "Max": 9156,
      "basis": 9157,
      "confir": 9158,
      "TRACT": 9159,
[...]
